const unsigned char dht20_anomaly_model_tflite[] = {
  0x20, 0x00, 0x00, 0x00, 0x54, 0x46, 0x4c, 0x33, 0x00, 0x00, 0x00, 0x00,
  0x14, 0x00, 0x20, 0x00, 0x1c, 0x00, 0x18, 0x00, 0x14, 0x00, 0x10, 0x00,
  0x0c, 0x00, 0x00, 0x00, 0x08, 0x00, 0x04, 0x00, 0x14, 0x00, 0x00, 0x00,
  0x1c, 0x00, 0x00, 0x00, 0x98, 0x00, 0x00, 0x00, 0xf0, 0x00, 0x00, 0x00,
  0x08, 0x17, 0x00, 0x00, 0x18, 0x17, 0x00, 0x00, 0xb0, 0x1f, 0x00, 0x00,
  0x03, 0x00, 0x00, 0x00, 0x01, 0x00, 0x00, 0x00, 0x10, 0x00, 0x00, 0x00,
  0x00, 0x00, 0x0a, 0x00, 0x10, 0x00, 0x0c, 0x00, 0x08, 0x00, 0x04, 0x00,
  0x0a, 0x00, 0x00, 0x00, 0x0c, 0x00, 0x00, 0x00, 0x1c, 0x00, 0x00, 0x00,
  0x3c, 0x00, 0x00, 0x00, 0x0f, 0x00, 0x00, 0x00, 0x73, 0x65, 0x72, 0x76,
  0x69, 0x6e, 0x67, 0x5f, 0x64, 0x65, 0x66, 0x61, 0x75, 0x6c, 0x74, 0x00,
  0x01, 0x00, 0x00, 0x00, 0x04, 0x00, 0x00, 0x00, 0x90, 0xff, 0xff, 0xff,
  0x0d, 0x00, 0x00, 0x00, 0x04, 0x00, 0x00, 0x00, 0x08, 0x00, 0x00, 0x00,
  0x6f, 0x75, 0x74, 0x70, 0x75, 0x74, 0x5f, 0x30, 0x00, 0x00, 0x00, 0x00,
  0x01, 0x00, 0x00, 0x00, 0x04, 0x00, 0x00, 0x00, 0xda, 0xe8, 0xff, 0xff,
  0x04, 0x00, 0x00, 0x00, 0x0c, 0x00, 0x00, 0x00, 0x6b, 0x65, 0x72, 0x61,
  0x73, 0x5f, 0x74, 0x65, 0x6e, 0x73, 0x6f, 0x72, 0x00, 0x00, 0x00, 0x00,
  0x02, 0x00, 0x00, 0x00, 0x34, 0x00, 0x00, 0x00, 0x04, 0x00, 0x00, 0x00,
  0xdc, 0xff, 0xff, 0xff, 0x10, 0x00, 0x00, 0x00, 0x04, 0x00, 0x00, 0x00,
  0x13, 0x00, 0x00, 0x00, 0x43, 0x4f, 0x4e, 0x56, 0x45, 0x52, 0x53, 0x49,
  0x4f, 0x4e, 0x5f, 0x4d, 0x45, 0x54, 0x41, 0x44, 0x41, 0x54, 0x41, 0x00,
  0x08, 0x00, 0x0c, 0x00, 0x08, 0x00, 0x04, 0x00, 0x08, 0x00, 0x00, 0x00,
  0x0f, 0x00, 0x00, 0x00, 0x04, 0x00, 0x00, 0x00, 0x13, 0x00, 0x00, 0x00,
  0x6d, 0x69, 0x6e, 0x5f, 0x72, 0x75, 0x6e, 0x74, 0x69, 0x6d, 0x65, 0x5f,
  0x76, 0x65, 0x72, 0x73, 0x69, 0x6f, 0x6e, 0x00, 0x11, 0x00, 0x00, 0x00,
  0x14, 0x16, 0x00, 0x00, 0x0c, 0x16, 0x00, 0x00, 0xfc, 0x13, 0x00, 0x00,
  0xec, 0x12, 0x00, 0x00, 0x5c, 0x12, 0x00, 0x00, 0x0c, 0x12, 0x00, 0x00,
  0xec, 0x11, 0x00, 0x00, 0xdc, 0x10, 0x00, 0x00, 0xcc, 0x08, 0x00, 0x00,
  0xbc, 0x00, 0x00, 0x00, 0xb4, 0x00, 0x00, 0x00, 0xac, 0x00, 0x00, 0x00,
  0xa4, 0x00, 0x00, 0x00, 0x9c, 0x00, 0x00, 0x00, 0x94, 0x00, 0x00, 0x00,
  0x74, 0x00, 0x00, 0x00, 0x04, 0x00, 0x00, 0x00, 0x9a, 0xe9, 0xff, 0xff,
  0x04, 0x00, 0x00, 0x00, 0x60, 0x00, 0x00, 0x00, 0x0c, 0x00, 0x00, 0x00,
  0x08, 0x00, 0x0e, 0x00, 0x08, 0x00, 0x04, 0x00, 0x08, 0x00, 0x00, 0x00,
  0x10, 0x00, 0x00, 0x00, 0x28, 0x00, 0x00, 0x00, 0x00, 0x00, 0x06, 0x00,
  0x08, 0x00, 0x04, 0x00, 0x06, 0x00, 0x00, 0x00, 0x04, 0x00, 0x00, 0x00,
  0x01, 0x00, 0x00, 0x00, 0xea, 0x03, 0x00, 0x00, 0x0c, 0x00, 0x18, 0x00,
  0x14, 0x00, 0x10, 0x00, 0x0c, 0x00, 0x04, 0x00, 0x0c, 0x00, 0x00, 0x00,
  0x21, 0x38, 0x42, 0x21, 0xac, 0xdd, 0x8d, 0xf9, 0x02, 0x00, 0x00, 0x00,
  0x02, 0x00, 0x00, 0x00, 0x04, 0x00, 0x00, 0x00, 0x06, 0x00, 0x00, 0x00,
  0x32, 0x2e, 0x31, 0x39, 0x2e, 0x30, 0x00, 0x00, 0x06, 0xea, 0xff, 0xff,
  0x04, 0x00, 0x00, 0x00, 0x10, 0x00, 0x00, 0x00, 0x32, 0x2e, 0x31, 0x37,
  0x2e, 0x30, 0x00, 0x00, 0x00, 0x00, 0x00, 0x00, 0x00, 0x00, 0x00, 0x00,
  0x3c, 0xe2, 0xff, 0xff, 0x40, 0xe2, 0xff, 0xff, 0x44, 0xe2, 0xff, 0xff,
  0x48, 0xe2, 0xff, 0xff, 0x4c, 0xe2, 0xff, 0xff, 0x36, 0xea, 0xff, 0xff,
  0x04, 0x00, 0x00, 0x00, 0x00, 0x08, 0x00, 0x00, 0x05, 0x11, 0xfd, 0x38,
  0x0e, 0xea, 0xf8, 0x7f, 0xea, 0x07, 0xfb, 0x25, 0x72, 0x0e, 0x46, 0xe3,
  0x0d, 0x0a, 0x18, 0x0e, 0x26, 0x29, 0x1a, 0x18, 0x06, 0x27, 0x1c, 0x0c,
  0x2b, 0xfc, 0x10, 0x03, 0xfd, 0x05, 0xfe, 0xfe, 0x16, 0xfa, 0xf2, 0x1c,
  0x06, 0x3f, 0xfd, 0x2d, 0x06, 0x02, 0x6f, 0xfc, 0x1d, 0x02, 0x06, 0xe3,
  0x01, 0x3d, 0x22, 0xff, 0xf9, 0x02, 0xdf, 0x2c, 0x09, 0x2f, 0x1f, 0xf1,
  0x27, 0x12, 0xe0, 0x15, 0x2a, 0x16, 0xe5, 0x60, 0x2f, 0x0c, 0x29, 0x41,
  0xa6, 0xcf, 0x95, 0x19, 0xff, 0xde, 0x1c, 0x43, 0xd4, 0x45, 0xf6, 0x34,
  0x09, 0x1f, 0xef, 0x22, 0x01, 0xb4, 0x5c, 0x07, 0x0e, 0x0c, 0x13, 0xd2,
  0x37, 0x3b, 0x11, 0xed, 0xc8, 0x29, 0x1f, 0x17, 0x31, 0x41, 0xb8, 0x24,
  0x53, 0x22, 0x22, 0xf7, 0x15, 0x30, 0x4e, 0x7f, 0x06, 0x2a, 0x07, 0xed,
  0x24, 0x65, 0xe4, 0xee, 0x09, 0x05, 0x01, 0x01, 0xf1, 0x08, 0x06, 0xd0,
  0x10, 0x03, 0x00, 0x14, 0xf8, 0xea, 0x00, 0x0e, 0xef, 0xe4, 0xf3, 0xfa,
  0xf3, 0xe5, 0xf8, 0x05, 0x04, 0xf4, 0x04, 0x02, 0x81, 0xf3, 0x0c, 0x05,
  0xfb, 0x09, 0x0a, 0xf8, 0xff, 0x05, 0x0a, 0xf4, 0xfd, 0xec, 0x01, 0x87,
  0xf5, 0x04, 0x04, 0x18, 0xf7, 0x08, 0x02, 0x10, 0xfe, 0xeb, 0x02, 0x53,
  0x04, 0x15, 0x06, 0xf5, 0xfc, 0x0e, 0x08, 0x05, 0x83, 0x46, 0x73, 0xb6,
  0x81, 0x6b, 0xea, 0xa3, 0xc8, 0x1b, 0xf4, 0x6d, 0x61, 0xd5, 0x17, 0x8c,
  0x34, 0xeb, 0x43, 0xa5, 0xd3, 0x64, 0x43, 0x15, 0x9a, 0xc7, 0x22, 0xd1,
  0x17, 0x8d, 0xfa, 0x38, 0x47, 0xae, 0x11, 0x40, 0x1f, 0xa2, 0x26, 0xa3,
  0x8e, 0x9c, 0xb8, 0xd1, 0x24, 0xb9, 0x82, 0xeb, 0xb7, 0x8b, 0x6a, 0xc8,
  0x11, 0x51, 0x41, 0x62, 0xac, 0x88, 0xa6, 0x98, 0x22, 0xa2, 0x0f, 0xf7,
  0xba, 0xaf, 0xf6, 0xf9, 0xb8, 0xb0, 0xda, 0x11, 0xcf, 0x06, 0xb4, 0xc5,
  0x89, 0x06, 0xdc, 0xfd, 0xdd, 0xd8, 0xb7, 0x24, 0x5d, 0x1e, 0x10, 0xd2,
  0xd4, 0xd9, 0xb7, 0xb5, 0x25, 0x11, 0xe0, 0x36, 0xb8, 0x0b, 0xc4, 0xe7,
  0x41, 0xe4, 0x0b, 0x06, 0xd4, 0x22, 0xff, 0x0d, 0xd1, 0xb4, 0x81, 0x9a,
  0xfc, 0xdf, 0xbe, 0x3f, 0xc6, 0x1b, 0x33, 0x8c, 0xc0, 0x22, 0x35, 0x2e,
  0x2e, 0xf7, 0x2e, 0x0c, 0xf9, 0x0c, 0xf0, 0xf5, 0x19, 0xef, 0x0f, 0xa2,
  0xed, 0x02, 0x14, 0xd7, 0x81, 0x35, 0xf8, 0xea, 0x10, 0x42, 0x2b, 0xff,
  0xe6, 0xf2, 0xe6, 0x09, 0x0e, 0x0d, 0x1e, 0x0e, 0x09, 0x3f, 0xdd, 0x22,
  0x05, 0x06, 0x10, 0x43, 0xf3, 0xe9, 0x01, 0xf8, 0x2d, 0xe9, 0x17, 0xfe,
  0x10, 0xe5, 0x8e, 0xeb, 0x01, 0x10, 0xfa, 0xff, 0x07, 0xf3, 0xf4, 0xa9,
  0xf8, 0xdb, 0xeb, 0xdb, 0xf9, 0xb7, 0x0c, 0x0d, 0xb8, 0xda, 0x8a, 0xc0,
  0xc8, 0x17, 0x06, 0x2a, 0xfb, 0x3a, 0xaa, 0x2b, 0xa1, 0x2e, 0xf0, 0x60,
  0xe0, 0xe3, 0xcd, 0xad, 0xaf, 0x81, 0x9b, 0x23, 0xa2, 0x0f, 0xeb, 0x6f,
  0x6e, 0xb2, 0xa6, 0x63, 0x85, 0x3f, 0x20, 0x61, 0x22, 0x2b, 0xaa, 0xc8,
  0x9e, 0x4f, 0x08, 0xf5, 0x9f, 0x20, 0x87, 0x98, 0x62, 0xd8, 0xd7, 0x49,
  0x0d, 0x20, 0xe3, 0x7e, 0x42, 0xa4, 0xb1, 0x56, 0x88, 0xca, 0x86, 0x1c,
  0x07, 0xfc, 0x03, 0x0c, 0xfc, 0x04, 0x0f, 0x81, 0xfe, 0x03, 0x09, 0xf0,
  0xa1, 0x07, 0xdc, 0x01, 0xff, 0x1e, 0x02, 0xfc, 0xda, 0xdf, 0xe0, 0x01,
  0xfd, 0xf7, 0x08, 0xfb, 0xec, 0x20, 0x07, 0x10, 0xfd, 0x0a, 0x0d, 0x21,
  0xfd, 0x03, 0x08, 0xe6, 0x11, 0xd3, 0x11, 0xe8, 0xf8, 0x08, 0xa7, 0x00,
  0xf7, 0xfc, 0x04, 0x13, 0x0c, 0xd9, 0x06, 0xf4, 0xfe, 0x00, 0x0a, 0xd6,
  0x0e, 0xe7, 0x0e, 0x0a, 0xfe, 0x09, 0xff, 0x27, 0x15, 0xf4, 0xf1, 0x7f,
  0xf1, 0xfd, 0xfc, 0x04, 0x5c, 0x26, 0x3d, 0xe6, 0x1d, 0x1b, 0x0a, 0x0e,
  0x2b, 0x2b, 0x32, 0x0f, 0xf5, 0x10, 0x1c, 0x0d, 0x21, 0x21, 0xee, 0x04,
  0xfc, 0x0d, 0x06, 0x1c, 0x0d, 0xf5, 0xfb, 0x21, 0x04, 0x49, 0x05, 0x2f,
  0x12, 0xf5, 0x53, 0xee, 0x24, 0x09, 0xf6, 0xf4, 0x0b, 0x32, 0x14, 0xc2,
  0x05, 0xec, 0xf5, 0x37, 0x01, 0xf2, 0x1d, 0x00, 0x08, 0xfd, 0x06, 0xd4,
  0xea, 0x07, 0x19, 0x93, 0xfc, 0x06, 0x01, 0xc4, 0x9e, 0x28, 0x81, 0xf7,
  0x14, 0x1e, 0xfb, 0xf5, 0xe4, 0xc7, 0xef, 0xf2, 0x11, 0xfa, 0x13, 0xf1,
  0xdc, 0x3b, 0xe8, 0x1a, 0xfa, 0x09, 0x10, 0x3a, 0xf2, 0xef, 0x1c, 0x04,
  0x2e, 0xd1, 0x0e, 0xdf, 0xf6, 0xf2, 0x96, 0xf3, 0xe4, 0x0c, 0x02, 0x16,
  0xfd, 0xcf, 0xf3, 0xc3, 0x04, 0xe8, 0xfe, 0xe7, 0xfd, 0xb5, 0x27, 0x13,
  0xde, 0xed, 0x0f, 0x2a, 0x0b, 0x04, 0xfd, 0x7f, 0xfa, 0x07, 0xe4, 0x02,
  0x6f, 0x15, 0x3b, 0x05, 0xf8, 0x1c, 0x0c, 0x04, 0x26, 0x16, 0x39, 0xe2,
  0xf0, 0x08, 0x13, 0xf4, 0x16, 0x1e, 0xd7, 0x08, 0x03, 0xec, 0xf7, 0x0b,
  0xed, 0xe0, 0xf9, 0x29, 0x18, 0x42, 0xe8, 0x14, 0xf9, 0xcf, 0x70, 0x07,
  0xf6, 0xfa, 0xcb, 0xff, 0xe4, 0x16, 0xe5, 0xea, 0xf7, 0xc8, 0x03, 0x2b,
  0xe2, 0xfa, 0x24, 0xf9, 0x8b, 0xa6, 0xd2, 0xa5, 0xff, 0x97, 0x0d, 0x81,
  0x31, 0xd0, 0x22, 0x40, 0xda, 0x3c, 0x89, 0x82, 0xfb, 0x77, 0x66, 0x9f,
  0x07, 0xa5, 0xf0, 0xbb, 0x0f, 0x5e, 0x73, 0x32, 0x3b, 0x99, 0x3e, 0x34,
  0xa9, 0x1a, 0xb1, 0xdf, 0xf4, 0xe7, 0xc7, 0xb5, 0x5f, 0x5a, 0xaf, 0x1b,
  0xd6, 0x9d, 0xce, 0xd3, 0xa5, 0xbd, 0x6f, 0xa5, 0x54, 0x8d, 0xb5, 0x09,
  0xc1, 0xbe, 0xdd, 0xcb, 0xb7, 0x3e, 0x1d, 0xbd, 0x15, 0x08, 0xfd, 0x30,
  0x1c, 0xfa, 0x19, 0x7f, 0x37, 0xe8, 0x02, 0x55, 0xd2, 0xe5, 0xc9, 0x18,
  0x05, 0xf4, 0x19, 0x0e, 0x09, 0x0b, 0x1b, 0x0d, 0x12, 0x3b, 0x0f, 0x2e,
  0x0e, 0xd8, 0x38, 0xe6, 0x02, 0x1e, 0x06, 0xda, 0x2f, 0x2d, 0x05, 0x1a,
  0xd7, 0x33, 0x0b, 0x09, 0x1c, 0x17, 0xeb, 0x18, 0x16, 0x12, 0x1d, 0x17,
  0x20, 0x08, 0x30, 0x5a, 0xfd, 0x4b, 0x0b, 0xf7, 0x2b, 0x60, 0xdf, 0x0b,
  0x0e, 0x1c, 0x19, 0x19, 0x22, 0x1c, 0x16, 0x1d, 0x52, 0xea, 0x0e, 0x7f,
  0x4f, 0xbf, 0xc0, 0x35, 0xe3, 0xaa, 0xd6, 0xfd, 0x15, 0x1c, 0x10, 0x11,
  0x15, 0x0c, 0xe7, 0x0b, 0x20, 0xb9, 0x56, 0xe3, 0xf5, 0x20, 0x21, 0xb5,
  0x3e, 0x15, 0xf8, 0xdb, 0xc8, 0xf2, 0x13, 0x21, 0xf6, 0x35, 0x5c, 0x31,
  0x0e, 0x21, 0x11, 0x13, 0x21, 0x0c, 0x44, 0x6e, 0x08, 0x4b, 0x12, 0x0a,
  0x1b, 0x65, 0xf6, 0x0f, 0x0c, 0x05, 0xf6, 0x05, 0x02, 0x02, 0x03, 0x81,
  0xfc, 0x05, 0x04, 0xfd, 0xa2, 0x07, 0xde, 0xf2, 0x0a, 0xfa, 0x04, 0x01,
  0xd9, 0xf6, 0xb7, 0x00, 0x08, 0x0e, 0xfe, 0x04, 0xf3, 0xf8, 0xf6, 0x10,
  0xfa, 0xfb, 0x10, 0xf8, 0x00, 0x09, 0x14, 0xde, 0xf9, 0xdb, 0x0b, 0xf6,
  0x06, 0x01, 0xa7, 0xf6, 0x01, 0xf6, 0xfb, 0x0c, 0x04, 0xea, 0x0c, 0xf5,
  0x06, 0xfb, 0xf7, 0xa8, 0x08, 0x02, 0xf1, 0xfe, 0x05, 0xf4, 0x1b, 0x2c,
  0xef, 0x14, 0x1a, 0x61, 0x38, 0xf8, 0xfe, 0x4c, 0x7f, 0xe3, 0x56, 0x15,
  0xd5, 0xfa, 0xf1, 0xde, 0x14, 0xf5, 0x3f, 0x0c, 0x0b, 0xd6, 0x28, 0xe0,
  0x01, 0x20, 0x2b, 0x0a, 0x0f, 0x01, 0x00, 0x0b, 0xef, 0x12, 0x13, 0x4b,
  0x0d, 0x30, 0x10, 0xfc, 0xec, 0x0c, 0x7a, 0x40, 0xec, 0xf5, 0x00, 0x1f,
  0xfd, 0xe5, 0x05, 0x68, 0x04, 0x17, 0x29, 0x38, 0x0a, 0x3b, 0x36, 0x0f,
  0xff, 0x01, 0xfa, 0x11, 0x0a, 0x02, 0x05, 0x7f, 0xe5, 0x0a, 0xfc, 0xee,
  0x60, 0x26, 0x4a, 0xf3, 0x11, 0x1b, 0x0a, 0x13, 0x1f, 0x27, 0x2a, 0x06,
  0xf6, 0x17, 0x17, 0x0e, 0x29, 0x10, 0xf0, 0x03, 0xfe, 0x03, 0x06, 0x10,
  0xfc, 0xf9, 0x01, 0x19, 0x1e, 0x36, 0x02, 0x31, 0x0e, 0x04, 0x66, 0xe6,
  0x1e, 0xfe, 0x00, 0xf5, 0x00, 0x28, 0x06, 0xc1, 0xf8, 0xee, 0xf0, 0x36,
  0xff, 0xf2, 0x1c, 0x09, 0x0f, 0x00, 0xfc, 0x05, 0x04, 0xf7, 0x05, 0x81,
  0xe5, 0x0b, 0x13, 0xdd, 0x8e, 0x01, 0xcd, 0xe4, 0x05, 0x00, 0x19, 0xff,
  0xdf, 0xe4, 0xcc, 0x07, 0x10, 0x10, 0xff, 0x0e, 0xdf, 0x11, 0xf5, 0x15,
  0x0c, 0x01, 0x08, 0x09, 0x0b, 0xf5, 0x16, 0xe5, 0x02, 0xe2, 0x15, 0xf5,
  0xfb, 0xff, 0x98, 0xe2, 0xfe, 0xfc, 0x0b, 0x0f, 0x10, 0xe0, 0xf4, 0xdd,
  0x03, 0xe8, 0xf5, 0xc0, 0x13, 0xd0, 0xe1, 0x09, 0xc7, 0x09, 0xcb, 0xfc,
  0x43, 0x41, 0x12, 0x15, 0x32, 0x49, 0xda, 0x33, 0x02, 0x09, 0x2e, 0xe3,
  0xe6, 0xce, 0xb2, 0xf9, 0xcc, 0x12, 0x12, 0x04, 0x6c, 0x0d, 0x09, 0xab,
  0xab, 0x03, 0x9a, 0xec, 0xa9, 0x88, 0xbb, 0xe8, 0xd0, 0xe9, 0x5a, 0x95,
  0x2b, 0x35, 0x20, 0x45, 0x5b, 0x3b, 0x64, 0x43, 0x1f, 0x68, 0xc1, 0xce,
  0xe5, 0x27, 0x60, 0xfe, 0x25, 0x03, 0xb0, 0x4c, 0xe0, 0xa6, 0x92, 0x81,
  0xee, 0xf4, 0xbf, 0x2b, 0x10, 0xeb, 0x0e, 0x3c, 0xb4, 0x02, 0x13, 0x43,
  0x81, 0xdd, 0xf5, 0xe4, 0x18, 0xde, 0xe5, 0x0e, 0x42, 0x1e, 0x06, 0x15,
  0xe5, 0x20, 0xc5, 0xec, 0xfa, 0xef, 0xd1, 0x0e, 0xe1, 0x27, 0x10, 0xfa,
  0x2a, 0xe8, 0x17, 0xec, 0xed, 0xff, 0x06, 0x03, 0xdd, 0xe7, 0xa7, 0xa5,
  0x2c, 0x2b, 0x15, 0x14, 0x05, 0x1f, 0xf8, 0xb4, 0x09, 0xd8, 0xd7, 0x05,
  0x02, 0x5a, 0xdc, 0x0f, 0xf9, 0xf9, 0x06, 0xe1, 0xeb, 0xfb, 0x1d, 0xa1,
  0xee, 0xf1, 0x10, 0xd7, 0x81, 0x3b, 0xe1, 0x08, 0x08, 0x46, 0x1f, 0xfc,
  0xd5, 0xfe, 0xd8, 0xf6, 0x00, 0xfa, 0x34, 0x01, 0xeb, 0x49, 0xc7, 0x12,
  0xf1, 0xed, 0x18, 0x2c, 0xdc, 0xeb, 0x0e, 0x18, 0x40, 0xf6, 0x0d, 0xfd,
  0xf0, 0xdb, 0x8e, 0xe3, 0xe1, 0x0f, 0xf4, 0x1b, 0x06, 0xec, 0xf0, 0xce,
  0xfa, 0xe7, 0x1b, 0xcd, 0x0b, 0xae, 0x0e, 0x01, 0x59, 0x8c, 0x15, 0x36,
  0xf8, 0xea, 0x13, 0x3b, 0x6b, 0x46, 0x34, 0x5c, 0x50, 0x35, 0x14, 0xfa,
  0x36, 0xd2, 0xd7, 0xa6, 0x03, 0xe4, 0xe3, 0xbf, 0xeb, 0x07, 0x8f, 0xef,
  0x58, 0x1a, 0x55, 0xd4, 0x9d, 0xf1, 0xb8, 0x9f, 0x90, 0x30, 0x73, 0x81,
  0x70, 0xa4, 0xa0, 0x4b, 0x37, 0x35, 0x54, 0xc9, 0xaa, 0x1a, 0xef, 0x84,
  0xdf, 0x22, 0x4b, 0x8e, 0xe3, 0x27, 0x9a, 0xfe, 0xea, 0x43, 0x1d, 0xed,
  0x0e, 0xff, 0xf8, 0x0f, 0xf9, 0x00, 0x05, 0x86, 0xf2, 0x09, 0x0c, 0xdb,
  0x81, 0x06, 0xc4, 0xfe, 0x13, 0x0a, 0x03, 0x03, 0xfa, 0xf2, 0xc1, 0xfc,
  0x11, 0x11, 0xf7, 0x0a, 0xe1, 0x0c, 0xf2, 0x0c, 0xfd, 0x14, 0x08, 0x0c,
  0x0a, 0x08, 0x1a, 0xe1, 0x08, 0xe0, 0x08, 0xe6, 0x02, 0x01, 0x98, 0xfd,
  0x0d, 0xfe, 0x09, 0xfc, 0x0b, 0xf9, 0xfd, 0xd6, 0xfd, 0xec, 0xf9, 0xd0,
  0x0d, 0xee, 0xe9, 0x0a, 0xf7, 0x07, 0x03, 0xeb, 0xee, 0xfe, 0x08, 0x81,
  0xf7, 0x09, 0xf7, 0xbe, 0xb8, 0x04, 0xc3, 0x0b, 0x08, 0x1c, 0x17, 0xec,
  0xd7, 0xc4, 0xf4, 0x06, 0x0a, 0xfa, 0x14, 0xff, 0xcf, 0x18, 0xef, 0x13,
  0x0c, 0x0e, 0x10, 0x23, 0xed, 0xfe, 0x1a, 0x0f, 0x11, 0xdb, 0x07, 0xe2,
  0xfa, 0x03, 0x9c, 0xee, 0xf2, 0x09, 0xf5, 0x17, 0x07, 0xce, 0xe5, 0xdf,
  0xfa, 0xfc, 0x0f, 0xd9, 0x0a, 0xd1, 0x15, 0xfe, 0x78, 0x81, 0xb5, 0x78,
  0x05, 0xec, 0xcb, 0xa2, 0x29, 0x3c, 0xa1, 0x29, 0x00, 0x79, 0xc4, 0xfb,
  0xbb, 0xc7, 0x69, 0x5c, 0x8a, 0xf3, 0xcc, 0x98, 0x70, 0x1c, 0x43, 0x99,
  0xd1, 0xeb, 0x8a, 0xae, 0xbd, 0x5d, 0xe6, 0xc5, 0xb6, 0x17, 0xad, 0x6e,
  0x34, 0xbf, 0xcf, 0x2e, 0x44, 0x1d, 0x39, 0x88, 0xbe, 0x3f, 0x8f, 0xf3,
  0x4e, 0x86, 0x7a, 0x69, 0x38, 0x73, 0x5a, 0x05, 0x95, 0x30, 0xbb, 0xad,
  0x08, 0x01, 0xf8, 0xe5, 0x07, 0xf5, 0x03, 0x07, 0xef, 0x06, 0x0b, 0xce,
  0xc0, 0xff, 0xed, 0xef, 0x04, 0x07, 0x0c, 0x05, 0x81, 0xff, 0xd9, 0x08,
  0x07, 0x06, 0xf1, 0x0b, 0xf9, 0xf6, 0x07, 0x04, 0x03, 0x06, 0x0d, 0xfc,
  0x06, 0xff, 0x08, 0xe4, 0x00, 0xfa, 0x04, 0xf4, 0xfd, 0x09, 0xc7, 0xed,
  0x0a, 0xfc, 0x04, 0xfe, 0x04, 0xf8, 0x0d, 0xed, 0x05, 0xff, 0xf0, 0xb4,
  0x03, 0xd6, 0xcb, 0x02, 0x04, 0xfb, 0x0e, 0xe9, 0xec, 0x00, 0x11, 0x96,
  0xf6, 0xfd, 0x07, 0xd2, 0x8c, 0x16, 0xc4, 0xfc, 0x0b, 0x24, 0x18, 0x01,
  0xde, 0xd7, 0xcf, 0xff, 0x0b, 0xea, 0x06, 0xf2, 0xe8, 0x1f, 0xd9, 0x29,
  0xf3, 0x01, 0x13, 0x1a, 0xea, 0x04, 0x1b, 0xf9, 0x1f, 0xcb, 0x0c, 0xde,
  0x03, 0xfc, 0x81, 0xf4, 0xea, 0x06, 0xfd, 0x0f, 0x09, 0xe6, 0xef, 0xd1,
  0x00, 0xd9, 0x08, 0xdf, 0x02, 0xc3, 0xfe, 0x02, 0x25, 0x01, 0x07, 0x0c,
  0xfa, 0x2c, 0x07, 0xde, 0x48, 0xef, 0x14, 0x5d, 0x39, 0xc1, 0xd9, 0x38,
  0xe7, 0xa6, 0xea, 0x0b, 0x02, 0x05, 0xf3, 0x14, 0x01, 0x10, 0xeb, 0x03,
  0x10, 0xca, 0x4b, 0xe1, 0x0c, 0x1c, 0x18, 0xad, 0x23, 0x35, 0x0a, 0xc6,
  0xd7, 0xd8, 0x05, 0x2e, 0xfa, 0x37, 0x42, 0x4a, 0x0d, 0x06, 0x15, 0x02,
  0x0a, 0x2d, 0x14, 0x7f, 0xfb, 0x47, 0x30, 0xf9, 0x1f, 0x5e, 0xfb, 0x03,
  0xfb, 0xfc, 0x0b, 0x14, 0xe8, 0x05, 0x07, 0x2f, 0x2b, 0xf4, 0x0c, 0x36,
  0x6a, 0xf2, 0x4f, 0x21, 0xe9, 0xfd, 0xf6, 0xe6, 0xf9, 0xda, 0x2a, 0xf4,
  0x16, 0xee, 0x32, 0xfa, 0x06, 0x15, 0x1e, 0x02, 0xf5, 0x00, 0xfe, 0x07,
  0xfe, 0x04, 0x03, 0x33, 0x07, 0x02, 0x0f, 0xf6, 0x08, 0x10, 0x59, 0x39,
  0xdb, 0x06, 0x0d, 0x1a, 0xf9, 0xde, 0xee, 0x7f, 0x00, 0x1d, 0x1d, 0x18,
  0x05, 0x40, 0x37, 0x18, 0x05, 0xf6, 0x0c, 0x09, 0x18, 0x02, 0x0d, 0x7f,
  0x1f, 0x02, 0x0b, 0x30, 0x7f, 0xf5, 0x37, 0x1b, 0xfe, 0xf4, 0xfc, 0x13,
  0x1b, 0x18, 0x20, 0xfb, 0xf8, 0x02, 0x11, 0x0a, 0x23, 0xed, 0x1b, 0xed,
  0xf4, 0xf9, 0xf6, 0xe2, 0x1c, 0x0d, 0x00, 0x17, 0xfb, 0x38, 0x06, 0x12,
  0x0c, 0x1d, 0x79, 0x12, 0x0a, 0xfa, 0xfd, 0x05, 0x07, 0x1a, 0x0c, 0x25,
  0xff, 0x1a, 0x11, 0x23, 0xfd, 0x2f, 0x0f, 0x01, 0xfc, 0x03, 0x01, 0xf4,
  0xed, 0x05, 0x07, 0xf6, 0x01, 0xfc, 0xff, 0xfb, 0xec, 0x04, 0xf1, 0x07,
  0x03, 0x10, 0x01, 0xf0, 0xfa, 0xec, 0x05, 0xe7, 0x00, 0xe5, 0x16, 0xec,
  0x02, 0x0e, 0xeb, 0x02, 0xfd, 0xf7, 0xf5, 0x11, 0xc9, 0xf3, 0x06, 0x1c,
  0x0b, 0x0b, 0x03, 0xf8, 0xf9, 0xde, 0xeb, 0x0c, 0xe2, 0xfa, 0xf9, 0x0a,
  0xf8, 0xec, 0x81, 0xe5, 0xfb, 0xde, 0x0f, 0x02, 0xf9, 0xf1, 0x1d, 0x08,
  0x0e, 0x05, 0xf0, 0x05, 0x1a, 0xf4, 0x00, 0x81, 0x22, 0x0b, 0x13, 0x35,
  0xd2, 0xdd, 0xe0, 0x0c, 0x03, 0xdd, 0x03, 0x20, 0xdb, 0x1d, 0xd9, 0x14,
  0x0b, 0x1b, 0xe9, 0x12, 0x11, 0xe5, 0x30, 0xfd, 0xf8, 0x0a, 0x1c, 0xe9,
  0x1b, 0x1a, 0x0d, 0xee, 0xe4, 0xc5, 0x13, 0x10, 0x19, 0x24, 0xdd, 0x11,
  0x28, 0x0e, 0x06, 0x0b, 0x1a, 0x18, 0x2c, 0x4b, 0x07, 0x35, 0x0c, 0xb9,
  0x09, 0x36, 0xea, 0x09, 0x42, 0xf2, 0xff, 0xff, 0x04, 0x00, 0x00, 0x00,
  0x00, 0x08, 0x00, 0x00, 0xd1, 0x48, 0x90, 0xbe, 0xfe, 0xf2, 0x81, 0xbe,
  0xa9, 0xd6, 0x90, 0x3c, 0x58, 0x6f, 0x77, 0xbd, 0xa3, 0x1f, 0x93, 0x3e,
  0xe0, 0xd7, 0x70, 0x3c, 0xec, 0x37, 0xb1, 0x3d, 0x7a, 0xea, 0x6e, 0xbe,
  0xb2, 0x32, 0xef, 0xbd, 0x62, 0xa3, 0x0a, 0xbe, 0xab, 0xf5, 0xa8, 0x3e,
  0x56, 0xc6, 0x7e, 0x3e, 0x2e, 0x75, 0x08, 0x3e, 0xb9, 0x27, 0x98, 0xbd,
  0xb2, 0xbe, 0xb8, 0x3d, 0x76, 0xc5, 0x62, 0xbb, 0x39, 0x2e, 0xd3, 0x3d,
  0xc7, 0x42, 0x31, 0xbc, 0x39, 0xb8, 0xe9, 0x3d, 0xff, 0x69, 0x38, 0xbe,
  0x9f, 0xc6, 0x6a, 0xbe, 0xfa, 0xa9, 0x9c, 0x3e, 0x34, 0x31, 0xb7, 0xbe,
  0xa7, 0xa8, 0x51, 0x3e, 0x51, 0x87, 0x82, 0x3e, 0x00, 0x25, 0xa5, 0xbd,
  0x7c, 0x5e, 0x91, 0xbe, 0xb1, 0xe5, 0x22, 0x3e, 0x20, 0x45, 0x97, 0x3c,
  0x9b, 0x93, 0x97, 0xbe, 0xf5, 0xd0, 0x07, 0xbe, 0x67, 0x18, 0xa3, 0x3d,
  0x30, 0x30, 0xa6, 0xbd, 0xb0, 0x6b, 0x31, 0xbd, 0x4c, 0x40, 0xcf, 0x3d,
  0xe8, 0x18, 0x06, 0x3e, 0xcc, 0x08, 0x89, 0x3d, 0xec, 0x1c, 0xb1, 0xbd,
  0xba, 0xd6, 0x6a, 0x3e, 0x73, 0x2b, 0x01, 0xbe, 0x45, 0x3d, 0x14, 0xbe,
  0xf0, 0xa7, 0x87, 0x3c, 0x08, 0xd0, 0x89, 0x3d, 0x1b, 0xb4, 0x0c, 0xbe,
  0xe0, 0x9b, 0x69, 0x3c, 0x2a, 0x1e, 0x63, 0x3e, 0x33, 0x89, 0xab, 0xbe,
  0xcb, 0x6f, 0x0e, 0xbe, 0xbb, 0x3a, 0x10, 0xbe, 0x68, 0x1c, 0x3a, 0xbd,
  0x5a, 0xfb, 0x0f, 0x3e, 0xd6, 0xce, 0x85, 0xbe, 0x24, 0x53, 0x8e, 0xbd,
  0x93, 0xe6, 0x97, 0xbe, 0x54, 0x59, 0xa3, 0x3d, 0x68, 0x85, 0xb7, 0xbd,
  0x54, 0x9e, 0x13, 0x3e, 0x80, 0x5f, 0xd3, 0xbc, 0xb8, 0x38, 0x9a, 0xbe,
  0xc0, 0x24, 0x8e, 0xbc, 0x34, 0x2c, 0x92, 0xbe, 0x2c, 0xb7, 0xac, 0xbd,
  0x8f, 0x63, 0x4c, 0xbe, 0xd6, 0x54, 0xa9, 0xbe, 0x24, 0x6d, 0x19, 0x3f,
  0xd7, 0x45, 0x81, 0xbf, 0x25, 0xc6, 0x23, 0x3f, 0xbf, 0x96, 0x0c, 0xbe,
  0xb3, 0x3c, 0xa6, 0xbe, 0x8b, 0x8c, 0x00, 0x3c, 0x67, 0xe0, 0xd9, 0xbd,
  0xf3, 0xee, 0x15, 0x3d, 0xb2, 0xa6, 0xc8, 0x3e, 0x4a, 0x3b, 0x19, 0x3f,
  0xbe, 0x32, 0x80, 0x3f, 0x9d, 0x87, 0x95, 0x3c, 0x6e, 0xbc, 0xd3, 0xbe,
  0x77, 0xa2, 0x28, 0xbf, 0xc6, 0x99, 0xbf, 0xbe, 0x80, 0xed, 0x88, 0x3f,
  0xb7, 0xc6, 0x70, 0x3e, 0x10, 0xb3, 0xbe, 0xbe, 0x8f, 0xef, 0xa3, 0xbe,
  0x1a, 0x0f, 0x41, 0x3e, 0x42, 0x97, 0x04, 0x3f, 0xf9, 0x5a, 0x3d, 0x3e,
  0x3b, 0x67, 0xab, 0xbe, 0x0e, 0xf7, 0x7a, 0xbd, 0x64, 0x94, 0x29, 0x3e,
  0x8b, 0xce, 0x58, 0xbf, 0x09, 0x99, 0x0a, 0x3e, 0x70, 0x8a, 0xe0, 0xbe,
  0x2f, 0x1d, 0x5d, 0x3f, 0x29, 0x0e, 0xdb, 0x3e, 0xd8, 0xc9, 0x15, 0x40,
  0xe2, 0xc4, 0x16, 0xbf, 0x36, 0xc6, 0xdf, 0x3e, 0x30, 0xd0, 0xb3, 0x3d,
  0x0d, 0x1e, 0xe5, 0xbe, 0xbb, 0x85, 0x6f, 0x3d, 0xf6, 0x1c, 0xcb, 0xbe,
  0xa2, 0xd4, 0xc5, 0x3e, 0x54, 0xd7, 0xce, 0xbd, 0x22, 0x2b, 0x95, 0x3d,
  0x76, 0xa1, 0x5f, 0x3f, 0x45, 0x3f, 0xdd, 0x3d, 0xb4, 0x24, 0x98, 0x3f,
  0x56, 0x95, 0x91, 0x3e, 0x83, 0xbb, 0x81, 0x3d, 0x85, 0xcf, 0x85, 0xbe,
  0x9a, 0xaf, 0xde, 0xbe, 0xa1, 0x7b, 0xd8, 0x3e, 0x24, 0xd9, 0x8c, 0x3e,
  0x4c, 0x78, 0xff, 0xbe, 0xc4, 0x60, 0xaf, 0xbd, 0x26, 0x7d, 0xb1, 0xbd,
  0xc7, 0xa6, 0xb1, 0x3e, 0xe6, 0x6d, 0x92, 0xbe, 0xf9, 0xbe, 0x94, 0xbe,
  0x95, 0xe6, 0x65, 0xbe, 0x88, 0xb8, 0x33, 0xbd, 0xcc, 0x47, 0x7d, 0xbe,
  0x3b, 0x71, 0x8d, 0xbe, 0xa1, 0x2c, 0x18, 0xbf, 0xdc, 0x51, 0xcc, 0x3c,
  0x9a, 0x44, 0x16, 0x3f, 0xbc, 0x21, 0x32, 0x3f, 0x57, 0xcb, 0xd5, 0xbe,
  0x79, 0x80, 0x3b, 0xbe, 0x48, 0xc8, 0xa5, 0xbe, 0x3d, 0xcc, 0x97, 0x3e,
  0x17, 0xee, 0x25, 0xbe, 0xe0, 0xbf, 0x6c, 0xbc, 0x30, 0x55, 0x92, 0xbe,
  0x5f, 0x47, 0x96, 0x3e, 0xf7, 0xf1, 0xa2, 0xbe, 0xb5, 0xff, 0x46, 0x39,
  0x1d, 0x7a, 0x01, 0x3e, 0xcd, 0x72, 0x46, 0x3e, 0xc3, 0xbc, 0x9f, 0x3e,
  0xcd, 0xde, 0xf3, 0xbc, 0x54, 0x19, 0xa5, 0x3e, 0x8a, 0xd0, 0x15, 0xbe,
  0x20, 0x02, 0xd8, 0xbc, 0xa4, 0x43, 0x0e, 0x3e, 0x35, 0x10, 0xb2, 0x3e,
  0x00, 0x97, 0x87, 0xbe, 0x51, 0xb1, 0xde, 0xbd, 0xe3, 0x7c, 0x38, 0x3e,
  0x70, 0x87, 0xaf, 0x3d, 0x84, 0x78, 0x8f, 0xbe, 0x8f, 0xb8, 0x2b, 0xbe,
  0x68, 0xda, 0xa0, 0xbe, 0x28, 0xf8, 0xd6, 0xbd, 0x98, 0x1c, 0xb5, 0xbe,
  0x10, 0x66, 0x8f, 0xbd, 0x64, 0x13, 0xa3, 0xbe, 0xb6, 0x88, 0xbe, 0xbd,
  0x42, 0xe8, 0x19, 0xbe, 0xbe, 0x3e, 0x5d, 0xbe, 0x11, 0x3b, 0xfa, 0xbd,
  0xa7, 0x1c, 0x1d, 0x3f, 0x7d, 0x04, 0x3b, 0x3e, 0x80, 0x18, 0x1f, 0x3c,
  0xec, 0x5b, 0xd4, 0xbd, 0xc7, 0xd4, 0x11, 0x3e, 0xb7, 0x32, 0x00, 0xbe,
  0x4c, 0x98, 0x23, 0x3e, 0x68, 0xa0, 0x13, 0xbd, 0xf3, 0xe0, 0x4a, 0x3e,
  0x92, 0xfd, 0x43, 0xbf, 0x7e, 0x41, 0x5b, 0x3e, 0xfd, 0x21, 0x29, 0x3f,
  0x3d, 0x06, 0x3f, 0x3d, 0x33, 0xb0, 0x64, 0x3d, 0x09, 0xe0, 0x9a, 0x3e,
  0x51, 0xfc, 0x86, 0xbe, 0x05, 0x5a, 0x3d, 0x3e, 0x4c, 0xb8, 0x6b, 0x3e,
  0xfb, 0x18, 0x13, 0x3d, 0x3f, 0x8a, 0x99, 0x3e, 0xa1, 0x55, 0x7b, 0xbe,
  0x9c, 0x0e, 0x09, 0x3f, 0x74, 0x1c, 0x90, 0xbd, 0x74, 0xb2, 0xbd, 0xbd,
  0xdc, 0xf1, 0x1a, 0x3f, 0x38, 0x22, 0x27, 0x3e, 0x5b, 0xef, 0xa7, 0x3e,
  0xef, 0xa2, 0x94, 0x3d, 0x29, 0xa6, 0xe7, 0x3e, 0x23, 0x32, 0x47, 0xbe,
  0x4f, 0xa3, 0x05, 0x3f, 0x08, 0x51, 0x9c, 0x3f, 0x63, 0x46, 0x99, 0x3e,
  0x3d, 0xb7, 0x3b, 0x3e, 0x39, 0x49, 0x8b, 0xbe, 0xfe, 0x09, 0xa0, 0x3e,
  0x83, 0x1b, 0xc2, 0xbe, 0x21, 0x4d, 0x72, 0x3e, 0xeb, 0xe2, 0xb4, 0xbe,
  0x4a, 0x6b, 0x5c, 0x3f, 0xa4, 0xc7, 0x5c, 0xbf, 0x94, 0x61, 0xb5, 0x3f,
  0x95, 0xd8, 0x47, 0x3d, 0x9a, 0x4b, 0xa2, 0x3e, 0xc6, 0x5d, 0x2b, 0x3d,
  0x3d, 0xa5, 0x3b, 0xbe, 0xcb, 0xfb, 0x31, 0xbd, 0x94, 0x04, 0x82, 0x3f,
  0xa7, 0xde, 0x04, 0xbe, 0x49, 0x5e, 0x87, 0x3e, 0xed, 0xa0, 0x92, 0x3e,
  0x56, 0x73, 0x36, 0xbe, 0xe4, 0xb6, 0x16, 0xbe, 0xec, 0x9e, 0x88, 0xbe,
  0xca, 0xb4, 0x04, 0xbf, 0x25, 0x8a, 0x5f, 0xbe, 0xde, 0xf5, 0x7c, 0xbe,
  0xc7, 0xac, 0x35, 0xbf, 0xde, 0x71, 0x2a, 0x3e, 0xc5, 0x9e, 0xdf, 0xbc,
  0x14, 0xc5, 0x7f, 0x3f, 0x9e, 0xec, 0x44, 0xbe, 0x7c, 0x69, 0xc8, 0x3e,
  0x27, 0x75, 0x83, 0xbf, 0x64, 0x58, 0x27, 0xbe, 0xc9, 0x22, 0x0a, 0x3f,
  0xec, 0xfe, 0x58, 0xbe, 0xb0, 0xad, 0x87, 0x3d, 0xec, 0xbf, 0xb4, 0x3e,
  0x80, 0x38, 0xed, 0xbb, 0xc2, 0x2e, 0x0e, 0x3f, 0x72, 0x7a, 0x51, 0xbf,
  0x8e, 0xa8, 0x57, 0x3f, 0xbd, 0x24, 0x08, 0x3e, 0x83, 0xdf, 0x9c, 0x3e,
  0x51, 0xab, 0xbe, 0x3d, 0x60, 0x30, 0x83, 0x3d, 0x6d, 0xb9, 0x8c, 0xbe,
  0x95, 0xd8, 0x35, 0x3f, 0x74, 0x3d, 0xcf, 0xbe, 0xb6, 0xbc, 0xe0, 0x3d,
  0x1a, 0xe0, 0x43, 0x3e, 0xe6, 0x8f, 0xa8, 0x3e, 0x29, 0xe7, 0x35, 0x3f,
  0x06, 0xfa, 0x81, 0xbe, 0xad, 0xf0, 0x88, 0xbd, 0x07, 0x73, 0x58, 0x3f,
  0xda, 0x82, 0xa5, 0x3e, 0x71, 0x63, 0x37, 0xbf, 0x81, 0x78, 0x4c, 0x3f,
  0xa1, 0x13, 0x06, 0x3f, 0x23, 0x7f, 0x1c, 0x3f, 0x74, 0x36, 0x01, 0xbf,
  0xee, 0x1e, 0xe4, 0x3f, 0xc4, 0x18, 0x6c, 0x3e, 0x31, 0xe7, 0x77, 0x3d,
  0x00, 0x1d, 0xb1, 0xbe, 0xf3, 0x2d, 0x6b, 0xbf, 0xdb, 0x24, 0x83, 0x3e,
  0x9a, 0x47, 0xd7, 0x3d, 0xaf, 0x33, 0x44, 0x3f, 0x03, 0xde, 0xbf, 0x3c,
  0xaa, 0x1b, 0x81, 0xbe, 0x49, 0xab, 0x00, 0x3f, 0xcf, 0x9a, 0x1b, 0x3f,
  0x0b, 0x72, 0x1b, 0x3d, 0xcb, 0x4d, 0xcb, 0x3d, 0xa5, 0xdf, 0xba, 0xbe,
  0xc6, 0x5a, 0x5d, 0xbf, 0x2f, 0x71, 0x80, 0x3e, 0xe0, 0x13, 0xed, 0xbe,
  0xc6, 0x04, 0x28, 0x3f, 0xb2, 0x3d, 0x54, 0x3e, 0xca, 0xa6, 0x91, 0xbe,
  0xef, 0x05, 0x8a, 0x3e, 0x9f, 0x8a, 0x6a, 0x3e, 0x37, 0xbb, 0xb4, 0x3e,
  0xa6, 0xee, 0xbb, 0x3e, 0x8a, 0xe1, 0xb9, 0x3b, 0xa3, 0xf8, 0xc6, 0xbd,
  0x1e, 0x40, 0x1a, 0x3e, 0xe2, 0xca, 0x26, 0x3f, 0x93, 0xc0, 0x8c, 0xbf,
  0xa6, 0x43, 0x1e, 0xbf, 0xec, 0xe4, 0x26, 0xbf, 0xbc, 0xef, 0x86, 0xbe,
  0x88, 0x7e, 0x3b, 0xbe, 0x4a, 0x4e, 0x8f, 0xbe, 0x09, 0x04, 0x0a, 0xbf,
  0x78, 0xf7, 0x7b, 0xbf, 0x94, 0xff, 0x2d, 0x3e, 0x90, 0x99, 0x6a, 0xbe,
  0x06, 0xff, 0x1c, 0x3f, 0x70, 0x5c, 0x2b, 0x3d, 0x33, 0x60, 0xb8, 0x3e,
  0x58, 0x31, 0xee, 0x3e, 0xdd, 0xc6, 0x15, 0x3f, 0xb9, 0x7b, 0xa4, 0xbe,
  0x61, 0x34, 0x2b, 0xbe, 0x86, 0xdb, 0x08, 0x3e, 0xad, 0xaf, 0x89, 0xbf,
  0x8a, 0xed, 0x55, 0x3e, 0xd0, 0xf4, 0x2d, 0xbf, 0xc2, 0x81, 0xb1, 0xbd,
  0x75, 0x01, 0xdc, 0x3e, 0x9c, 0xea, 0x99, 0x3d, 0x49, 0xc4, 0x8b, 0x3d,
  0x1b, 0x80, 0x3f, 0x3f, 0xe5, 0x78, 0x5e, 0xbe, 0x9c, 0x3f, 0x42, 0x3e,
  0x35, 0x92, 0x23, 0x3e, 0xd9, 0x24, 0x3a, 0x3e, 0x3a, 0x77, 0xcb, 0x3e,
  0xab, 0x66, 0xe6, 0x3e, 0xe1, 0xfb, 0x7d, 0xbf, 0x46, 0xce, 0x22, 0xbf,
  0x4f, 0x76, 0x18, 0xbf, 0x46, 0x9e, 0x43, 0xbe, 0xb3, 0x3a, 0xad, 0xbe,
  0x17, 0xa5, 0x99, 0x3c, 0xf1, 0xbf, 0x06, 0x3f, 0x68, 0xf6, 0xc3, 0x3d,
  0xf7, 0x92, 0xa6, 0x3e, 0x03, 0x39, 0x43, 0xbe, 0x11, 0x13, 0x17, 0x3f,
  0xfd, 0xe7, 0x85, 0xbd, 0x5e, 0xc2, 0x3f, 0x3f, 0x25, 0xac, 0x21, 0xbe,
  0x22, 0x02, 0x61, 0x3e, 0x0c, 0x21, 0x85, 0xbf, 0x22, 0x7d, 0x9f, 0xbd,
  0x7c, 0xdd, 0xed, 0x3e, 0xc3, 0x84, 0xca, 0xbe, 0x29, 0xe4, 0x36, 0x3f,
  0x15, 0x52, 0xae, 0xbc, 0x01, 0x8d, 0x8f, 0xbe, 0x53, 0x4d, 0x3d, 0x3f,
  0xd2, 0x01, 0x40, 0x3e, 0x6d, 0xe7, 0x1e, 0x3f, 0x18, 0x72, 0xde, 0x3e,
  0xe1, 0x71, 0x51, 0x3e, 0xf0, 0x9f, 0x2d, 0x3f, 0xf7, 0xe1, 0xc3, 0x3e,
  0x47, 0x94, 0x0b, 0x3e, 0x3a, 0x4a, 0x4a, 0x3f, 0x02, 0xff, 0xf9, 0x3e,
  0x78, 0xcd, 0xcc, 0xbd, 0xb8, 0xa6, 0xe6, 0xbd, 0x7b, 0x04, 0x34, 0xbe,
  0x36, 0x8f, 0x21, 0xbf, 0xad, 0x6c, 0x21, 0x3f, 0x57, 0x40, 0xea, 0xbd,
  0x79, 0xf8, 0x7e, 0xbe, 0x7c, 0xaa, 0x28, 0x3e, 0x61, 0x22, 0x81, 0x3e,
  0x8b, 0xa8, 0x95, 0xbe, 0x32, 0x15, 0x9e, 0xbe, 0x92, 0xfe, 0x93, 0xbe,
  0x95, 0x27, 0x65, 0xbe, 0x2f, 0xf3, 0xb0, 0x3c, 0x91, 0xc1, 0x8e, 0x3e,
  0x2a, 0x4f, 0x38, 0xbb, 0xd0, 0x1e, 0x29, 0x3d, 0x96, 0x7b, 0x91, 0xbd,
  0xb4, 0x9f, 0x85, 0xbe, 0x1d, 0x97, 0x93, 0xbe, 0xaf, 0x74, 0xcd, 0xbe,
  0x47, 0xf4, 0x06, 0x3e, 0xdb, 0x02, 0x57, 0xbe, 0x1c, 0xce, 0x8d, 0xbe,
  0x5f, 0x4a, 0x34, 0x3c, 0x81, 0xb9, 0xa7, 0xbd, 0x3b, 0xe1, 0xa3, 0x3c,
  0x7b, 0x89, 0x8f, 0x3e, 0xba, 0x7f, 0x1f, 0xbe, 0x3d, 0x62, 0x32, 0xbe,
  0x79, 0xc9, 0x98, 0xbe, 0x99, 0x96, 0x7a, 0x3e, 0x09, 0x20, 0xbf, 0xbe,
  0x9a, 0x69, 0x96, 0x3e, 0x16, 0x9e, 0x90, 0xbe, 0x05, 0xb6, 0xb5, 0x3d,
  0x06, 0x05, 0xb1, 0xbe, 0x49, 0xca, 0x92, 0x3f, 0xc4, 0xff, 0xc4, 0x3e,
  0x8e, 0xce, 0xe2, 0x3d, 0x4f, 0x31, 0x51, 0xbd, 0x5e, 0xe7, 0x15, 0xbe,
  0x1b, 0xe4, 0x8b, 0xbe, 0x6b, 0x91, 0xd9, 0x3c, 0x59, 0x0d, 0xe6, 0xbe,
  0xeb, 0x62, 0x51, 0x3f, 0x3e, 0x66, 0x99, 0xbf, 0x49, 0x9b, 0x5e, 0x3f,
  0x23, 0x8c, 0x93, 0x3e, 0x64, 0x18, 0x9e, 0x3e, 0x20, 0xbe, 0x42, 0x3f,
  0x3a, 0x21, 0x83, 0xbe, 0xcb, 0xc1, 0x09, 0x3f, 0xf6, 0x42, 0xc1, 0x3e,
  0x61, 0x56, 0x8b, 0xbe, 0xf8, 0x3f, 0x5e, 0xbd, 0x5d, 0x72, 0x95, 0x3e,
  0x8e, 0xa5, 0x57, 0xbf, 0x74, 0xad, 0x08, 0xbe, 0xc0, 0xca, 0x65, 0xbe,
  0x67, 0x3e, 0xfa, 0xbe, 0xc7, 0x9b, 0x6c, 0xbc, 0x8e, 0x7f, 0xf6, 0xbe,
  0x39, 0x7f, 0x91, 0xbf, 0x6f, 0xb9, 0x1b, 0x3f, 0x7e, 0x9b, 0x99, 0x3d,
  0xa8, 0x41, 0x19, 0x3f, 0x7a, 0x74, 0x41, 0x3e, 0x1b, 0x01, 0x96, 0x3e,
  0xb4, 0x08, 0x23, 0xbe, 0xf6, 0xd0, 0x6b, 0xbe, 0x65, 0x29, 0x45, 0xbf,
  0x77, 0xf6, 0xa2, 0x3e, 0x93, 0xcc, 0x60, 0x3d, 0xe9, 0x3f, 0xe4, 0x3e,
  0xcf, 0xf6, 0x81, 0x3c, 0xae, 0x02, 0xa3, 0xbd, 0xc2, 0x0e, 0x50, 0x3e,
  0x68, 0xdf, 0x2b, 0x3f, 0xe7, 0x2b, 0xcf, 0xbe, 0x0d, 0x14, 0x4e, 0xbe,
  0x97, 0x7d, 0x06, 0xbf, 0x64, 0xdb, 0xbe, 0xbf, 0xd0, 0x2a, 0xab, 0xbe,
  0xeb, 0x8f, 0x10, 0xbf, 0x3d, 0x16, 0xcb, 0x3e, 0x40, 0x75, 0xf5, 0x3e,
  0x15, 0xd0, 0x3a, 0xbe, 0x04, 0x98, 0x87, 0x3e, 0x02, 0x90, 0x10, 0x3f,
  0x3b, 0x63, 0x92, 0xbe, 0x8c, 0x89, 0xe5, 0x3e, 0x41, 0x11, 0x28, 0x3f,
  0xe7, 0xd8, 0x89, 0xbe, 0x20, 0x3a, 0x97, 0xbe, 0xb9, 0x17, 0x1a, 0x3f,
  0xaf, 0xaf, 0x9a, 0xbf, 0xaa, 0xc1, 0xc9, 0xbe, 0x50, 0x60, 0x86, 0xbe,
  0x51, 0x70, 0xec, 0x3e, 0x75, 0x78, 0x00, 0xbf, 0xe6, 0x47, 0xed, 0x3e,
  0xba, 0x38, 0x2d, 0x3f, 0x13, 0x29, 0xe7, 0x3e, 0x7a, 0xb0, 0x2a, 0x3e,
  0x59, 0xf1, 0x2d, 0xbe, 0xc7, 0x6b, 0x2d, 0xbf, 0x22, 0xb4, 0x77, 0xbd,
  0x35, 0xb4, 0xb5, 0xbc, 0x60, 0xd3, 0x71, 0xbe, 0xd3, 0xbe, 0xc8, 0xbe,
  0xae, 0x43, 0x0b, 0x3f, 0xac, 0xbb, 0xa4, 0xbd, 0x7c, 0x7e, 0x56, 0x3f,
  0x60, 0x6a, 0x80, 0x3f, 0xec, 0xbd, 0x1b, 0x3e, 0x59, 0xe7, 0x24, 0x3f,
  0xff, 0x7b, 0xd5, 0xbe, 0x67, 0x2c, 0x30, 0xbd, 0x83, 0x7b, 0x9f, 0xbe,
  0x9a, 0x21, 0x38, 0x3e, 0xdb, 0x8a, 0x8a, 0xbe, 0x02, 0x97, 0x24, 0xbe,
  0xa8, 0x11, 0x2b, 0x3d, 0x14, 0x6c, 0x75, 0xbe, 0xea, 0xe3, 0x66, 0x3e,
  0xa3, 0x8f, 0x19, 0x3c, 0x28, 0xc7, 0xc9, 0xbe, 0x4d, 0x05, 0x96, 0x3f,
  0xee, 0x07, 0x6a, 0x3f, 0x67, 0xf7, 0x41, 0x3f, 0x77, 0x1e, 0x43, 0xbe,
  0xac, 0x98, 0x60, 0x3e, 0x0c, 0x6e, 0x88, 0x3f, 0x15, 0x0c, 0x22, 0x3f,
  0xa2, 0x48, 0x0f, 0xbf, 0x85, 0x4c, 0x8f, 0x3e, 0xf6, 0x05, 0x0e, 0xbe,
  0x3d, 0x06, 0x95, 0x3e, 0xbe, 0xac, 0xa2, 0xbe, 0x09, 0xb9, 0xfd, 0x3d,
  0x87, 0x2f, 0x30, 0x3f, 0xe1, 0x56, 0x33, 0xbf, 0xac, 0xef, 0x1d, 0x3f,
  0x72, 0x1d, 0xa8, 0xbe, 0x2b, 0xfb, 0xeb, 0x3e, 0x30, 0xb6, 0x86, 0x3e,
  0x87, 0xc1, 0x88, 0x3e, 0x21, 0xf1, 0xf6, 0xbd, 0x0d, 0x6e, 0x47, 0x3f,
  0x69, 0x85, 0xa7, 0x3d, 0x4c, 0x18, 0x50, 0xbe, 0x0d, 0x2a, 0xeb, 0x3d,
  0x58, 0xf7, 0x43, 0xbe, 0x78, 0x13, 0x71, 0xbe, 0x74, 0x11, 0xb3, 0xbd,
  0xda, 0xec, 0x2f, 0xbf, 0x77, 0x61, 0x83, 0x3b, 0x74, 0x20, 0x68, 0x3f,
  0xf5, 0x20, 0x96, 0xbd, 0x09, 0xdb, 0x26, 0x3e, 0x25, 0x5e, 0x6b, 0xbe,
  0xff, 0x24, 0xd3, 0x3d, 0xc5, 0x05, 0x63, 0xbf, 0x45, 0x18, 0x1f, 0x3f,
  0x4e, 0xfa, 0xff, 0xff, 0x04, 0x00, 0x00, 0x00, 0x00, 0x01, 0x00, 0x00,
  0xec, 0xb4, 0x8c, 0x3e, 0xf0, 0x3a, 0x02, 0xbd, 0x4e, 0xd8, 0x3f, 0x3f,
  0xa9, 0x64, 0xc3, 0x3e, 0x95, 0xc9, 0x58, 0xbe, 0x0b, 0xfa, 0x4b, 0xbf,
  0xae, 0xa8, 0xce, 0xbe, 0x38, 0xe3, 0x3d, 0x3f, 0x30, 0xa2, 0x9d, 0x3e,
  0xf9, 0xe2, 0x01, 0x3f, 0xd2, 0xb1, 0x1e, 0xbf, 0x89, 0xee, 0xf0, 0x3d,
  0x7f, 0xf3, 0x9f, 0xbf, 0x21, 0x1e, 0x7a, 0x3f, 0xbb, 0x50, 0xbb, 0xbf,
  0x1c, 0x2f, 0xab, 0xbf, 0x1a, 0x09, 0xc3, 0xbe, 0x8c, 0xa2, 0x6d, 0x3e,
  0x85, 0x2f, 0xd2, 0x3e, 0xd9, 0xff, 0x50, 0x3f, 0xd3, 0x3c, 0x9e, 0xbe,
  0xab, 0x84, 0xe3, 0xbd, 0x0e, 0xfd, 0x8b, 0x3f, 0x07, 0xb3, 0x88, 0xbe,
  0xba, 0x32, 0x7d, 0xbe, 0xd6, 0x41, 0x27, 0xbf, 0x0b, 0x98, 0x2d, 0xbf,
  0x94, 0xf8, 0xb2, 0xbc, 0x63, 0x91, 0x90, 0x3f, 0x5a, 0x4c, 0x4f, 0xbf,
  0x71, 0x33, 0xa8, 0x3f, 0xab, 0x5c, 0xd4, 0x3e, 0xd1, 0x72, 0x38, 0xbe,
  0x40, 0x7d, 0xb7, 0x3e, 0x7f, 0x9e, 0x61, 0x3f, 0x0c, 0xe4, 0xab, 0xbf,
  0xf1, 0x77, 0xd6, 0xbe, 0xdb, 0x66, 0x1e, 0x3f, 0x25, 0xb5, 0x06, 0xc0,
  0x31, 0x12, 0x35, 0x3f, 0x74, 0x8b, 0xf2, 0xbf, 0x36, 0x7d, 0xc1, 0xbf,
  0xad, 0xed, 0x3a, 0x3f, 0x59, 0xa0, 0x81, 0x3e, 0xed, 0x96, 0x8f, 0xbf,
  0xf1, 0x9a, 0x55, 0xbf, 0x89, 0x86, 0x54, 0x3e, 0xbf, 0x88, 0x13, 0x3e,
  0x2a, 0x2e, 0x02, 0x3f, 0xd1, 0xfc, 0xec, 0xbe, 0x14, 0x27, 0xf8, 0xbf,
  0x80, 0xa3, 0x4e, 0xbd, 0x6a, 0x9e, 0xe5, 0xbe, 0x79, 0x70, 0x53, 0x3e,
  0x1a, 0x99, 0xa2, 0x3e, 0xb1, 0xa9, 0x88, 0xbf, 0x0b, 0x17, 0x3d, 0x3f,
  0x16, 0x5e, 0x7f, 0x3f, 0x04, 0xff, 0x32, 0x3f, 0x29, 0xeb, 0xd2, 0xbe,
  0x8d, 0x6b, 0x9d, 0xbe, 0xb5, 0x25, 0x83, 0x3e, 0x8b, 0x7a, 0xe1, 0xbf,
  0xb7, 0x08, 0xe2, 0x3e, 0x5a, 0xfb, 0xff, 0xff, 0x04, 0x00, 0x00, 0x00,
  0x10, 0x00, 0x00, 0x00, 0x54, 0x1d, 0x38, 0x3e, 0x66, 0x5f, 0x48, 0xbf,
  0x41, 0x29, 0xe0, 0x3e, 0x1c, 0xeb, 0x82, 0x3e, 0x76, 0xfb, 0xff, 0xff,
  0x04, 0x00, 0x00, 0x00, 0x40, 0x00, 0x00, 0x00, 0x07, 0xfb, 0x00, 0xbc,
  0x00, 0x00, 0x00, 0x00, 0x26, 0x61, 0xbe, 0x3d, 0x6e, 0x2b, 0x52, 0x3d,
  0x55, 0x0c, 0x39, 0xbd, 0x3c, 0x08, 0x42, 0x3e, 0xe0, 0xc7, 0x83, 0xbe,
  0xdc, 0x96, 0x87, 0x3e, 0x66, 0xa3, 0xc4, 0x3e, 0xf4, 0x8d, 0xcd, 0x3e,
  0xa7, 0xfc, 0xf8, 0x3e, 0x52, 0xdc, 0x32, 0xbd, 0x60, 0xf9, 0xf5, 0xbe,
  0x73, 0xd7, 0x9f, 0x3e, 0xed, 0x52, 0x8f, 0xbe, 0x94, 0xff, 0x49, 0xbd,
  0xc2, 0xfb, 0xff, 0xff, 0x04, 0x00, 0x00, 0x00, 0x80, 0x00, 0x00, 0x00,
  0x7d, 0x9d, 0xfe, 0xbd, 0x5e, 0x3e, 0x06, 0xbe, 0x8d, 0x78, 0x0f, 0xbd,
  0x77, 0x6f, 0xef, 0xbc, 0x60, 0xb8, 0x0e, 0xbd, 0xb1, 0xea, 0x0e, 0x3f,
  0x04, 0x57, 0xcf, 0xbc, 0x0a, 0x4d, 0xd0, 0x3e, 0xee, 0xc0, 0x52, 0x3e,
  0xb4, 0xf4, 0xdd, 0x3e, 0x43, 0xe9, 0x6b, 0xbd, 0x41, 0x04, 0xe3, 0xbc,
  0x26, 0xf9, 0x17, 0xbe, 0x4e, 0x02, 0xb5, 0xbe, 0xdd, 0x16, 0x8d, 0x3e,
  0xe0, 0x26, 0x06, 0xbe, 0xca, 0xc0, 0x49, 0x3e, 0x93, 0x82, 0xc7, 0x3e,
  0x7f, 0x93, 0xd3, 0xbc, 0xb8, 0x3f, 0x25, 0x3c, 0x9b, 0x2a, 0xef, 0x3e,
  0xf2, 0x55, 0x91, 0xbc, 0x02, 0xf2, 0xd4, 0x3e, 0xe4, 0x75, 0xb0, 0x3e,
  0xf7, 0xea, 0xd8, 0xbb, 0xa1, 0x92, 0x98, 0x3e, 0xd6, 0x25, 0x18, 0x3f,
  0x89, 0x87, 0x8f, 0xbe, 0x4f, 0xee, 0x9a, 0xbc, 0x6d, 0x56, 0xc3, 0xbe,
  0x62, 0x9d, 0x23, 0x3e, 0x48, 0x53, 0xda, 0xbd, 0x4e, 0xfc, 0xff, 0xff,
  0x04, 0x00, 0x00, 0x00, 0x00, 0x01, 0x00, 0x00, 0xbf, 0x4a, 0x73, 0xbe,
  0xf0, 0x15, 0x23, 0xbe, 0xd3, 0xee, 0xa1, 0x3c, 0xcd, 0x8b, 0xa9, 0x3e,
  0x19, 0xb7, 0x94, 0x3d, 0xe2, 0x8c, 0x11, 0xbe, 0xc1, 0xd8, 0x20, 0x3e,
  0x25, 0x10, 0x96, 0x3d, 0x28, 0x2b, 0x62, 0xbe, 0x92, 0x59, 0x40, 0xbd,
  0x93, 0x6b, 0xbe, 0xbd, 0xe2, 0xe1, 0x47, 0xbe, 0x0d, 0xb2, 0x7c, 0x3e,
  0x38, 0x48, 0xbd, 0x3e, 0xea, 0x0d, 0x88, 0x3e, 0x7a, 0xec, 0x22, 0xbe,
  0x0f, 0x2e, 0xa1, 0x3e, 0xc1, 0x96, 0xdd, 0x3e, 0xa6, 0x81, 0xaf, 0x3e,
  0xcc, 0x6e, 0x9f, 0x3d, 0x58, 0x41, 0xa2, 0x3e, 0xbc, 0xe1, 0xce, 0x3d,
  0x67, 0xb5, 0xd3, 0x3e, 0x26, 0xc1, 0x41, 0xbe, 0x1a, 0x00, 0x74, 0x3d,
  0x59, 0xab, 0xa0, 0x3d, 0x24, 0x47, 0xa1, 0x3e, 0x1f, 0x06, 0x30, 0xbc,
  0x29, 0x3e, 0xf4, 0x3d, 0x6f, 0xb9, 0x01, 0x3f, 0x6d, 0x65, 0x9a, 0xbe,
  0x9b, 0xfb, 0xde, 0x3e, 0x4a, 0x0e, 0x14, 0xbc, 0x5e, 0xb4, 0x5c, 0xbe,
  0x6f, 0x93, 0x43, 0x3e, 0xea, 0x9c, 0xef, 0x3e, 0x9c, 0x8a, 0x7c, 0xbe,
  0xac, 0xb2, 0x89, 0xbe, 0x76, 0x64, 0xb3, 0x3e, 0x21, 0x36, 0xee, 0x3e,
  0x1c, 0xe6, 0xab, 0x3e, 0x6e, 0xf5, 0x63, 0x3e, 0x92, 0x1e, 0x04, 0x3e,
  0xc2, 0x2f, 0x0a, 0x3e, 0x3b, 0x5c, 0x90, 0x3d, 0x7c, 0x8d, 0x89, 0xbe,
  0x87, 0x47, 0x5a, 0x3e, 0xd7, 0x49, 0x56, 0xbe, 0xf2, 0xca, 0xd3, 0x3d,
  0xd6, 0x5e, 0xc7, 0xbd, 0x07, 0x9f, 0x5b, 0xbe, 0x2c, 0x55, 0x0c, 0x3e,
  0xdb, 0x89, 0x08, 0xbe, 0x2c, 0xfd, 0xdb, 0x3d, 0xae, 0xf5, 0x72, 0xbe,
  0x16, 0xe4, 0xc4, 0xbe, 0xd7, 0x7d, 0x8d, 0xbc, 0x7b, 0xa6, 0xb5, 0xbe,
  0x59, 0xcc, 0xe9, 0xbc, 0x61, 0x40, 0xd1, 0x3e, 0xeb, 0x76, 0x35, 0xbe,
  0xf1, 0xa1, 0x3b, 0xbe, 0x3c, 0xa6, 0x6b, 0x3e, 0xa3, 0x53, 0xe9, 0x3d,
  0x5a, 0xfd, 0xff, 0xff, 0x04, 0x00, 0x00, 0x00, 0x00, 0x02, 0x00, 0x00,
  0x23, 0x77, 0x8d, 0x3e, 0x61, 0x83, 0x95, 0x3e, 0xd3, 0x34, 0x40, 0x3e,
  0xd8, 0x1a, 0x36, 0xbe, 0x2f, 0xe2, 0xd2, 0xbe, 0xa9, 0x37, 0x84, 0x3e,
  0x3e, 0xd2, 0x88, 0xbf, 0xe1, 0xe5, 0xaf, 0x3d, 0xdf, 0x9b, 0xb5, 0x3e,
  0x8a, 0xa3, 0xb2, 0xbe, 0x84, 0xc3, 0x36, 0xbe, 0x86, 0xbb, 0xc9, 0x3e,
  0xbd, 0x1e, 0xa8, 0xbe, 0x89, 0xd4, 0x61, 0x3e, 0xdc, 0x8e, 0xe8, 0xc0,
  0x36, 0x73, 0x90, 0xbd, 0xf7, 0x92, 0x1f, 0xbe, 0x89, 0xea, 0xf8, 0x3e,
  0x6e, 0x05, 0x40, 0xbe, 0x42, 0x07, 0x13, 0x3c, 0x59, 0x41, 0x9d, 0x3e,
  0x6b, 0xa7, 0x8c, 0x3e, 0x95, 0xdc, 0x22, 0xbf, 0x80, 0xe7, 0x30, 0x3f,
  0xb1, 0x74, 0x68, 0xbd, 0x86, 0x95, 0x80, 0xbf, 0xa9, 0x86, 0x35, 0xbd,
  0x3f, 0x82, 0xa7, 0xbe, 0x49, 0x34, 0xb4, 0x3d, 0x5e, 0x88, 0x87, 0xbf,
  0x30, 0x6a, 0x85, 0xbe, 0xdb, 0xf9, 0x04, 0x3f, 0x94, 0xc8, 0x99, 0x3e,
  0xa5, 0x61, 0xc4, 0xbe, 0x3e, 0xac, 0xd8, 0xbd, 0xfc, 0xf0, 0xad, 0xbe,
  0x95, 0x8a, 0x2a, 0x3e, 0x96, 0x6b, 0xae, 0xbe, 0x1a, 0x2a, 0xcb, 0x3e,
  0x3b, 0x65, 0xc4, 0xbe, 0xef, 0x5c, 0x18, 0xbf, 0xf5, 0x54, 0x94, 0xbe,
  0xa1, 0xb3, 0x02, 0x3f, 0x2d, 0x8f, 0xff, 0xbe, 0x80, 0x9b, 0xd8, 0xbe,
  0xe9, 0xf0, 0xda, 0xbe, 0x45, 0x0e, 0xe9, 0x3e, 0x64, 0xb1, 0xb6, 0x3d,
  0x33, 0xf8, 0xb5, 0xbd, 0x79, 0x23, 0x59, 0x3e, 0x3b, 0x85, 0xfc, 0x3e,
  0x93, 0xe7, 0xdd, 0xbe, 0x03, 0x1e, 0xf0, 0xbe, 0x8b, 0x52, 0x70, 0xbe,
  0x54, 0x18, 0xfd, 0x3e, 0xdd, 0xd0, 0x86, 0xbe, 0xb2, 0xc6, 0xbc, 0x3e,
  0xad, 0x42, 0x11, 0xbf, 0x83, 0x60, 0xb8, 0xbe, 0x9e, 0xbe, 0x50, 0xbe,
  0x3b, 0xed, 0x89, 0x3e, 0xcc, 0x14, 0xe0, 0x3e, 0x24, 0x1b, 0x72, 0xbe,
  0xcf, 0x8c, 0xd0, 0xbd, 0x06, 0x1c, 0x8a, 0xbb, 0xd0, 0xae, 0x86, 0xbc,
  0xce, 0x4b, 0xca, 0x3e, 0xd6, 0xe4, 0x7c, 0x3e, 0x18, 0x9a, 0xf2, 0x3e,
  0x78, 0x5e, 0xa3, 0x3e, 0x33, 0x2f, 0x9f, 0xbe, 0x2d, 0xa0, 0x50, 0xbe,
  0x96, 0x28, 0x0c, 0x3f, 0xc6, 0x28, 0x2f, 0x3e, 0xb1, 0x02, 0x6f, 0x3e,
  0xcc, 0xad, 0xc8, 0x3e, 0x9b, 0x15, 0x12, 0xbe, 0xd8, 0xb2, 0xd0, 0x3e,
  0xf4, 0x02, 0xff, 0xbe, 0x24, 0xf1, 0xc8, 0xbe, 0x73, 0x0f, 0x74, 0xbe,
  0x86, 0xfa, 0x0c, 0xbe, 0xe4, 0x69, 0x4b, 0xc0, 0xc2, 0xf0, 0x65, 0xbe,
  0x39, 0xc1, 0xf9, 0x3d, 0x4f, 0x47, 0xb3, 0x3e, 0x61, 0xf8, 0xdd, 0x3e,
  0x69, 0x7c, 0x21, 0xbf, 0xb3, 0xcd, 0x9d, 0x3e, 0x9e, 0xe1, 0x9c, 0xbe,
  0x06, 0xc6, 0xef, 0x3e, 0x1e, 0xb2, 0xc3, 0x3e, 0x3d, 0x3c, 0x42, 0xbd,
  0x96, 0xbc, 0x5f, 0xbf, 0x83, 0x5e, 0x90, 0xbe, 0x98, 0xf5, 0x1a, 0x3f,
  0xf9, 0xf2, 0x0e, 0x3f, 0xd2, 0xbe, 0x07, 0xbf, 0x6f, 0x98, 0x61, 0xbd,
  0xf6, 0x7d, 0xc2, 0x3d, 0x11, 0x84, 0x7c, 0x3e, 0xa3, 0x5a, 0x90, 0x3e,
  0x31, 0xc3, 0xbb, 0xbe, 0x62, 0x6a, 0xe4, 0x3e, 0x5a, 0x92, 0xd9, 0x3e,
  0x8c, 0xb8, 0xd2, 0x3d, 0x44, 0x4a, 0x10, 0x3f, 0xd7, 0x69, 0x0c, 0xbf,
  0x6e, 0x6e, 0x23, 0x3f, 0x41, 0x19, 0x33, 0x3c, 0xe9, 0x7a, 0xb0, 0xbb,
  0x3b, 0xc0, 0x11, 0x3f, 0x6c, 0x6d, 0xa0, 0xbd, 0xc4, 0xb3, 0xa4, 0xbb,
  0xdb, 0xe9, 0xa3, 0x3e, 0xd3, 0x57, 0x04, 0x3f, 0xad, 0x3d, 0xd1, 0xbe,
  0xa9, 0xb1, 0x00, 0x3f, 0xc5, 0xb5, 0x2a, 0xbf, 0x0d, 0x24, 0xcf, 0xbe,
  0x71, 0x77, 0xa1, 0x3e, 0xcb, 0x5e, 0x7b, 0x3e, 0x7e, 0x28, 0x04, 0xbf,
  0x01, 0xa8, 0x14, 0x3f, 0xf9, 0x9d, 0x0c, 0xbf, 0xd7, 0xf3, 0x24, 0x3c,
  0x37, 0xb4, 0x5c, 0xbe, 0xeb, 0x8f, 0xcc, 0x3d, 0x80, 0xf7, 0xff, 0xff,
  0x84, 0xf7, 0xff, 0xff, 0x0f, 0x00, 0x00, 0x00, 0x4d, 0x4c, 0x49, 0x52,
  0x20, 0x43, 0x6f, 0x6e, 0x76, 0x65, 0x72, 0x74, 0x65, 0x64, 0x2e, 0x00,
  0x01, 0x00, 0x00, 0x00, 0x14, 0x00, 0x00, 0x00, 0x00, 0x00, 0x0e, 0x00,
  0x18, 0x00, 0x14, 0x00, 0x10, 0x00, 0x0c, 0x00, 0x08, 0x00, 0x04, 0x00,
  0x0e, 0x00, 0x00, 0x00, 0x14, 0x00, 0x00, 0x00, 0x1c, 0x00, 0x00, 0x00,
  0x78, 0x01, 0x00, 0x00, 0x7c, 0x01, 0x00, 0x00, 0x80, 0x01, 0x00, 0x00,
  0x04, 0x00, 0x00, 0x00, 0x6d, 0x61, 0x69, 0x6e, 0x00, 0x00, 0x00, 0x00,
  0x05, 0x00, 0x00, 0x00, 0x20, 0x01, 0x00, 0x00, 0xcc, 0x00, 0x00, 0x00,
  0x84, 0x00, 0x00, 0x00, 0x50, 0x00, 0x00, 0x00, 0x14, 0x00, 0x00, 0x00,
  0x00, 0x00, 0x0e, 0x00, 0x1a, 0x00, 0x14, 0x00, 0x10, 0x00, 0x0c, 0x00,
  0x0b, 0x00, 0x04, 0x00, 0x0e, 0x00, 0x00, 0x00, 0x1c, 0x00, 0x00, 0x00,
  0x00, 0x00, 0x00, 0x09, 0x1c, 0x00, 0x00, 0x00, 0x20, 0x00, 0x00, 0x00,
  0x01, 0x00, 0x00, 0x00, 0x00, 0x00, 0x06, 0x00, 0x08, 0x00, 0x04, 0x00,
  0x06, 0x00, 0x00, 0x00, 0x00, 0x00, 0x80, 0x3f, 0x01, 0x00, 0x00, 0x00,
  0x0d, 0x00, 0x00, 0x00, 0x01, 0x00, 0x00, 0x00, 0x0c, 0x00, 0x00, 0x00,
  0x9a, 0xff, 0xff, 0xff, 0x10, 0x00, 0x00, 0x00, 0x00, 0x00, 0x00, 0x08,
  0x0c, 0x00, 0x00, 0x00, 0x10, 0x00, 0x00, 0x00, 0x4c, 0xf8, 0xff, 0xff,
  0x01, 0x00, 0x00, 0x00, 0x0c, 0x00, 0x00, 0x00, 0x03, 0x00, 0x00, 0x00,
  0x0b, 0x00, 0x00, 0x00, 0x06, 0x00, 0x00, 0x00, 0x05, 0x00, 0x00, 0x00,
  0xca, 0xff, 0xff, 0xff, 0x10, 0x00, 0x00, 0x00, 0x00, 0x00, 0x00, 0x08,
  0x10, 0x00, 0x00, 0x00, 0x14, 0x00, 0x00, 0x00, 0x6a, 0xff, 0xff, 0xff,
  0x00, 0x00, 0x00, 0x01, 0x01, 0x00, 0x00, 0x00, 0x0b, 0x00, 0x00, 0x00,
  0x03, 0x00, 0x00, 0x00, 0x0a, 0x00, 0x00, 0x00, 0x07, 0x00, 0x00, 0x00,
  0x04, 0x00, 0x00, 0x00, 0x00, 0x00, 0x0e, 0x00, 0x14, 0x00, 0x00, 0x00,
  0x10, 0x00, 0x0c, 0x00, 0x0b, 0x00, 0x04, 0x00, 0x0e, 0x00, 0x00, 0x00,
  0x1c, 0x00, 0x00, 0x00, 0x00, 0x00, 0x00, 0x08, 0x1c, 0x00, 0x00, 0x00,
  0x20, 0x00, 0x00, 0x00, 0x0c, 0x00, 0x08, 0x00, 0x07, 0x00, 0x00, 0x00,
  0x00, 0x00, 0x06, 0x00, 0x0c, 0x00, 0x00, 0x00, 0x00, 0x00, 0x01, 0x01,
  0x01, 0x00, 0x00, 0x00, 0x0a, 0x00, 0x00, 0x00, 0x03, 0x00, 0x00, 0x00,
  0x09, 0x00, 0x00, 0x00, 0x08, 0x00, 0x00, 0x00, 0x03, 0x00, 0x00, 0x00,
  0x00, 0x00, 0x0e, 0x00, 0x16, 0x00, 0x00, 0x00, 0x10, 0x00, 0x0c, 0x00,
  0x0b, 0x00, 0x04, 0x00, 0x0e, 0x00, 0x00, 0x00, 0x18, 0x00, 0x00, 0x00,
  0x00, 0x00, 0x00, 0x08, 0x18, 0x00, 0x00, 0x00, 0x1c, 0x00, 0x00, 0x00,
  0x00, 0x00, 0x06, 0x00, 0x08, 0x00, 0x07, 0x00, 0x06, 0x00, 0x00, 0x00,
  0x00, 0x00, 0x00, 0x01, 0x01, 0x00, 0x00, 0x00, 0x09, 0x00, 0x00, 0x00,
  0x03, 0x00, 0x00, 0x00, 0x00, 0x00, 0x00, 0x00, 0x01, 0x00, 0x00, 0x00,
  0x02, 0x00, 0x00, 0x00, 0x01, 0x00, 0x00, 0x00, 0x0d, 0x00, 0x00, 0x00,
  0x01, 0x00, 0x00, 0x00, 0x00, 0x00, 0x00, 0x00, 0x0e, 0x00, 0x00, 0x00,
  0x8c, 0x06, 0x00, 0x00, 0x34, 0x06, 0x00, 0x00, 0xe0, 0x05, 0x00, 0x00,
  0xa4, 0x05, 0x00, 0x00, 0x68, 0x05, 0x00, 0x00, 0x2c, 0x05, 0x00, 0x00,
  0xec, 0x04, 0x00, 0x00, 0xac, 0x04, 0x00, 0x00, 0xc4, 0x02, 0x00, 0x00,
  0x18, 0x02, 0x00, 0x00, 0x7c, 0x01, 0x00, 0x00, 0xe0, 0x00, 0x00, 0x00,
  0x60, 0x00, 0x00, 0x00, 0x04, 0x00, 0x00, 0x00, 0xc2, 0xf9, 0xff, 0xff,
  0x00, 0x00, 0x00, 0x01, 0x14, 0x00, 0x00, 0x00, 0x1c, 0x00, 0x00, 0x00,
  0x1c, 0x00, 0x00, 0x00, 0x0e, 0x00, 0x00, 0x00, 0x34, 0x00, 0x00, 0x00,
  0x02, 0x00, 0x00, 0x00, 0xff, 0xff, 0xff, 0xff, 0x04, 0x00, 0x00, 0x00,
  0xac, 0xf9, 0xff, 0xff, 0x1b, 0x00, 0x00, 0x00, 0x53, 0x74, 0x61, 0x74,
  0x65, 0x66, 0x75, 0x6c, 0x50, 0x61, 0x72, 0x74, 0x69, 0x74, 0x69, 0x6f,
  0x6e, 0x65, 0x64, 0x43, 0x61, 0x6c, 0x6c, 0x5f, 0x31, 0x3a, 0x30, 0x00,
  0x02, 0x00, 0x00, 0x00, 0x01, 0x00, 0x00, 0x00, 0x04, 0x00, 0x00, 0x00,
  0x1a, 0xfa, 0xff, 0xff, 0x00, 0x00, 0x00, 0x01, 0x14, 0x00, 0x00, 0x00,
  0x1c, 0x00, 0x00, 0x00, 0x1c, 0x00, 0x00, 0x00, 0x0d, 0x00, 0x00, 0x00,
  0x58, 0x00, 0x00, 0x00, 0x02, 0x00, 0x00, 0x00, 0xff, 0xff, 0xff, 0xff,
  0x04, 0x00, 0x00, 0x00, 0x04, 0xfa, 0xff, 0xff, 0x3c, 0x00, 0x00, 0x00,
  0x73, 0x65, 0x71, 0x75, 0x65, 0x6e, 0x74, 0x69, 0x61, 0x6c, 0x5f, 0x31,
  0x2f, 0x64, 0x65, 0x6e, 0x73, 0x65, 0x5f, 0x33, 0x5f, 0x31, 0x2f, 0x4d,
  0x61, 0x74, 0x4d, 0x75, 0x6c, 0x3b, 0x73, 0x65, 0x71, 0x75, 0x65, 0x6e,
  0x74, 0x69, 0x61, 0x6c, 0x5f, 0x31, 0x2f, 0x64, 0x65, 0x6e, 0x73, 0x65,
  0x5f, 0x33, 0x5f, 0x31, 0x2f, 0x42, 0x69, 0x61, 0x73, 0x41, 0x64, 0x64,
  0x00, 0x00, 0x00, 0x00, 0x02, 0x00, 0x00, 0x00, 0x01, 0x00, 0x00, 0x00,
  0x04, 0x00, 0x00, 0x00, 0x96, 0xfa, 0xff, 0xff, 0x00, 0x00, 0x00, 0x01,
  0x14, 0x00, 0x00, 0x00, 0x1c, 0x00, 0x00, 0x00, 0x1c, 0x00, 0x00, 0x00,
  0x0c, 0x00, 0x00, 0x00, 0x74, 0x00, 0x00, 0x00, 0x02, 0x00, 0x00, 0x00,
  0xff, 0xff, 0xff, 0xff, 0x10, 0x00, 0x00, 0x00, 0x80, 0xfa, 0xff, 0xff,
  0x58, 0x00, 0x00, 0x00, 0x73, 0x65, 0x71, 0x75, 0x65, 0x6e, 0x74, 0x69,
  0x61, 0x6c, 0x5f, 0x31, 0x2f, 0x64, 0x65, 0x6e, 0x73, 0x65, 0x5f, 0x32,
  0x5f, 0x31, 0x2f, 0x4d, 0x61, 0x74, 0x4d, 0x75, 0x6c, 0x3b, 0x73, 0x65,
  0x71, 0x75, 0x65, 0x6e, 0x74, 0x69, 0x61, 0x6c, 0x5f, 0x31, 0x2f, 0x64,
  0x65, 0x6e, 0x73, 0x65, 0x5f, 0x32, 0x5f, 0x31, 0x2f, 0x52, 0x65, 0x6c,
  0x75, 0x3b, 0x73, 0x65, 0x71, 0x75, 0x65, 0x6e, 0x74, 0x69, 0x61, 0x6c,
  0x5f, 0x31, 0x2f, 0x64, 0x65, 0x6e, 0x73, 0x65, 0x5f, 0x32, 0x5f, 0x31,
  0x2f, 0x42, 0x69, 0x61, 0x73, 0x41, 0x64, 0x64, 0x00, 0x00, 0x00, 0x00,
  0x02, 0x00, 0x00, 0x00, 0x01, 0x00, 0x00, 0x00, 0x10, 0x00, 0x00, 0x00,
  0x2e, 0xfb, 0xff, 0xff, 0x00, 0x00, 0x00, 0x01, 0x14, 0x00, 0x00, 0x00,
  0x1c, 0x00, 0x00, 0x00, 0x1c, 0x00, 0x00, 0x00, 0x0b, 0x00, 0x00, 0x00,
  0x74, 0x00, 0x00, 0x00, 0x02, 0x00, 0x00, 0x00, 0xff, 0xff, 0xff, 0xff,
  0x20, 0x00, 0x00, 0x00, 0x18, 0xfb, 0xff, 0xff, 0x58, 0x00, 0x00, 0x00,
  0x73, 0x65, 0x71, 0x75, 0x65, 0x6e, 0x74, 0x69, 0x61, 0x6c, 0x5f, 0x31,
  0x2f, 0x64, 0x65, 0x6e, 0x73, 0x65, 0x5f, 0x31, 0x5f, 0x32, 0x2f, 0x4d,
  0x61, 0x74, 0x4d, 0x75, 0x6c, 0x3b, 0x73, 0x65, 0x71, 0x75, 0x65, 0x6e,
  0x74, 0x69, 0x61, 0x6c, 0x5f, 0x31, 0x2f, 0x64, 0x65, 0x6e, 0x73, 0x65,
  0x5f, 0x31, 0x5f, 0x32, 0x2f, 0x52, 0x65, 0x6c, 0x75, 0x3b, 0x73, 0x65,
  0x71, 0x75, 0x65, 0x6e, 0x74, 0x69, 0x61, 0x6c, 0x5f, 0x31, 0x2f, 0x64,
  0x65, 0x6e, 0x73, 0x65, 0x5f, 0x31, 0x5f, 0x32, 0x2f, 0x42, 0x69, 0x61,
  0x73, 0x41, 0x64, 0x64, 0x00, 0x00, 0x00, 0x00, 0x02, 0x00, 0x00, 0x00,
  0x01, 0x00, 0x00, 0x00, 0x20, 0x00, 0x00, 0x00, 0xc6, 0xfb, 0xff, 0xff,
  0x00, 0x00, 0x00, 0x01, 0x14, 0x00, 0x00, 0x00, 0x1c, 0x00, 0x00, 0x00,
  0x1c, 0x00, 0x00, 0x00, 0x0a, 0x00, 0x00, 0x00, 0x6c, 0x00, 0x00, 0x00,
  0x02, 0x00, 0x00, 0x00, 0xff, 0xff, 0xff, 0xff, 0x40, 0x00, 0x00, 0x00,
  0xb0, 0xfb, 0xff, 0xff, 0x52, 0x00, 0x00, 0x00, 0x73, 0x65, 0x71, 0x75,
  0x65, 0x6e, 0x74, 0x69, 0x61, 0x6c, 0x5f, 0x31, 0x2f, 0x64, 0x65, 0x6e,
  0x73, 0x65, 0x5f, 0x31, 0x2f, 0x4d, 0x61, 0x74, 0x4d, 0x75, 0x6c, 0x3b,
  0x73, 0x65, 0x71, 0x75, 0x65, 0x6e, 0x74, 0x69, 0x61, 0x6c, 0x5f, 0x31,
  0x2f, 0x64, 0x65, 0x6e, 0x73, 0x65, 0x5f, 0x31, 0x2f, 0x52, 0x65, 0x6c,
  0x75, 0x3b, 0x73, 0x65, 0x71, 0x75, 0x65, 0x6e, 0x74, 0x69, 0x61, 0x6c,
  0x5f, 0x31, 0x2f, 0x64, 0x65, 0x6e, 0x73, 0x65, 0x5f, 0x31, 0x2f, 0x42,
  0x69, 0x61, 0x73, 0x41, 0x64, 0x64, 0x00, 0x00, 0x02, 0x00, 0x00, 0x00,
  0x01, 0x00, 0x00, 0x00, 0x40, 0x00, 0x00, 0x00, 0x00, 0x00, 0x16, 0x00,
  0x1c, 0x00, 0x18, 0x00, 0x17, 0x00, 0x10, 0x00, 0x0c, 0x00, 0x08, 0x00,
  0x00, 0x00, 0x00, 0x00, 0x00, 0x00, 0x07, 0x00, 0x16, 0x00, 0x00, 0x00,
  0x00, 0x00, 0x00, 0x01, 0x20, 0x00, 0x00, 0x00, 0xb4, 0x01, 0x00, 0x00,
  0x09, 0x00, 0x00, 0x00, 0x00, 0x00, 0x00, 0x09, 0xc0, 0x01, 0x00, 0x00,
  0x0c, 0x00, 0x0c, 0x00, 0x00, 0x00, 0x00, 0x00, 0x08, 0x00, 0x04, 0x00,
  0x0c, 0x00, 0x00, 0x00, 0x08, 0x00, 0x00, 0x00, 0x0c, 0x01, 0x00, 0x00,
  0x20, 0x00, 0x00, 0x00, 0x00, 0x00, 0x00, 0x00, 0x00, 0x00, 0x00, 0x00,
  0x00, 0x00, 0x00, 0x00, 0x00, 0x00, 0x00, 0x00, 0x00, 0x00, 0x00, 0x00,
  0x00, 0x00, 0x00, 0x00, 0x00, 0x00, 0x00, 0x00, 0x00, 0x00, 0x00, 0x00,
  0x00, 0x00, 0x00, 0x00, 0x00, 0x00, 0x00, 0x00, 0x00, 0x00, 0x00, 0x00,
  0x00, 0x00, 0x00, 0x00, 0x00, 0x00, 0x00, 0x00, 0x00, 0x00, 0x00, 0x00,
  0x00, 0x00, 0x00, 0x00, 0x00, 0x00, 0x00, 0x00, 0x00, 0x00, 0x00, 0x00,
  0x00, 0x00, 0x00, 0x00, 0x00, 0x00, 0x00, 0x00, 0x00, 0x00, 0x00, 0x00,
  0x00, 0x00, 0x00, 0x00, 0x00, 0x00, 0x00, 0x00, 0x00, 0x00, 0x00, 0x00,
  0x00, 0x00, 0x00, 0x00, 0x00, 0x00, 0x00, 0x00, 0x00, 0x00, 0x00, 0x00,
  0x00, 0x00, 0x00, 0x00, 0x00, 0x00, 0x00, 0x00, 0x00, 0x00, 0x00, 0x00,
  0x00, 0x00, 0x00, 0x00, 0x00, 0x00, 0x00, 0x00, 0x00, 0x00, 0x00, 0x00,
  0x00, 0x00, 0x00, 0x00, 0x00, 0x00, 0x00, 0x00, 0x00, 0x00, 0x00, 0x00,
  0x00, 0x00, 0x00, 0x00, 0x00, 0x00, 0x00, 0x00, 0x00, 0x00, 0x00, 0x00,
  0x00, 0x00, 0x00, 0x00, 0x00, 0x00, 0x00, 0x00, 0x00, 0x00, 0x00, 0x00,
  0x00, 0x00, 0x00, 0x00, 0x00, 0x00, 0x00, 0x00, 0x00, 0x00, 0x00, 0x00,
  0x00, 0x00, 0x00, 0x00, 0x00, 0x00, 0x00, 0x00, 0x00, 0x00, 0x00, 0x00,
  0x00, 0x00, 0x00, 0x00, 0x00, 0x00, 0x00, 0x00, 0x00, 0x00, 0x00, 0x00,
  0x00, 0x00, 0x00, 0x00, 0x00, 0x00, 0x00, 0x00, 0x00, 0x00, 0x00, 0x00,
  0x00, 0x00, 0x00, 0x00, 0x00, 0x00, 0x00, 0x00, 0x00, 0x00, 0x00, 0x00,
  0x00, 0x00, 0x00, 0x00, 0x00, 0x00, 0x00, 0x00, 0x00, 0x00, 0x00, 0x00,
  0x00, 0x00, 0x00, 0x00, 0x00, 0x00, 0x00, 0x00, 0x00, 0x00, 0x00, 0x00,
  0x00, 0x00, 0x00, 0x00, 0x00, 0x00, 0x00, 0x00, 0x00, 0x00, 0x00, 0x00,
  0x20, 0x00, 0x00, 0x00, 0x18, 0x4a, 0x9f, 0x3c, 0x8f, 0x5b, 0x28, 0x3c,
  0x53, 0x60, 0x0b, 0x3d, 0xf3, 0x90, 0x0a, 0x3b, 0x87, 0xc7, 0x51, 0x3b,
  0x77, 0x51, 0x7b, 0x3c, 0x20, 0x17, 0x00, 0x3b, 0x9a, 0x81, 0xb2, 0x3c,
  0xf0, 0xd2, 0xbc, 0x3c, 0x53, 0xb2, 0x72, 0x3c, 0xd5, 0x20, 0xbf, 0x3c,
  0x57, 0x85, 0xfb, 0x3a, 0x63, 0xf8, 0x35, 0x3c, 0xb5, 0xe9, 0x2a, 0x3c,
  0x4a, 0xf7, 0xb6, 0x3c, 0xc1, 0x86, 0x82, 0x3c, 0xa8, 0x85, 0xb2, 0x3c,
  0xad, 0xf4, 0x96, 0x3c, 0xa0, 0x69, 0x07, 0x3b, 0xc7, 0xb2, 0xec, 0x3b,
  0xc3, 0xcd, 0x51, 0x3c, 0xfa, 0x9f, 0x02, 0x3b, 0x6f, 0xc8, 0xa1, 0x3c,
  0x92, 0x09, 0x83, 0x3c, 0x90, 0x15, 0x03, 0x3b, 0x5a, 0xd3, 0x13, 0x3d,
  0x3b, 0xcc, 0x96, 0x3c, 0xc2, 0xbf, 0x47, 0x3c, 0x6a, 0xcd, 0x93, 0x3c,
  0x98, 0xfd, 0x9c, 0x3c, 0x7e, 0xf9, 0x02, 0x3d, 0x63, 0x1a, 0x5e, 0x3c,
  0x11, 0x00, 0x00, 0x00, 0x74, 0x66, 0x6c, 0x2e, 0x70, 0x73, 0x65, 0x75,
  0x64, 0x6f, 0x5f, 0x71, 0x63, 0x6f, 0x6e, 0x73, 0x74, 0x00, 0x00, 0x00,
  0x02, 0x00, 0x00, 0x00, 0x20, 0x00, 0x00, 0x00, 0x40, 0x00, 0x00, 0x00,
  0xa6, 0xfe, 0xff, 0xff, 0x00, 0x00, 0x00, 0x01, 0x10, 0x00, 0x00, 0x00,
  0x10, 0x00, 0x00, 0x00, 0x08, 0x00, 0x00, 0x00, 0x1c, 0x00, 0x00, 0x00,
  0x2c, 0xfe, 0xff, 0xff, 0x0f, 0x00, 0x00, 0x00, 0x61, 0x72, 0x69, 0x74,
  0x68, 0x2e, 0x63, 0x6f, 0x6e, 0x73, 0x74, 0x61, 0x6e, 0x74, 0x36, 0x00,
  0x02, 0x00, 0x00, 0x00, 0x10, 0x00, 0x00, 0x00, 0x20, 0x00, 0x00, 0x00,
  0xe2, 0xfe, 0xff, 0xff, 0x00, 0x00, 0x00, 0x01, 0x10, 0x00, 0x00, 0x00,
  0x10, 0x00, 0x00, 0x00, 0x07, 0x00, 0x00, 0x00, 0x1c, 0x00, 0x00, 0x00,
  0x68, 0xfe, 0xff, 0xff, 0x0f, 0x00, 0x00, 0x00, 0x61, 0x72, 0x69, 0x74,
  0x68, 0x2e, 0x63, 0x6f, 0x6e, 0x73, 0x74, 0x61, 0x6e, 0x74, 0x35, 0x00,
  0x02, 0x00, 0x00, 0x00, 0x04, 0x00, 0x00, 0x00, 0x10, 0x00, 0x00, 0x00,
  0x1e, 0xff, 0xff, 0xff, 0x00, 0x00, 0x00, 0x01, 0x10, 0x00, 0x00, 0x00,
  0x10, 0x00, 0x00, 0x00, 0x06, 0x00, 0x00, 0x00, 0x1c, 0x00, 0x00, 0x00,
  0xa4, 0xfe, 0xff, 0xff, 0x0f, 0x00, 0x00, 0x00, 0x61, 0x72, 0x69, 0x74,
  0x68, 0x2e, 0x63, 0x6f, 0x6e, 0x73, 0x74, 0x61, 0x6e, 0x74, 0x34, 0x00,
  0x01, 0x00, 0x00, 0x00, 0x04, 0x00, 0x00, 0x00, 0x56, 0xff, 0xff, 0xff,
  0x00, 0x00, 0x00, 0x01, 0x10, 0x00, 0x00, 0x00, 0x10, 0x00, 0x00, 0x00,
  0x05, 0x00, 0x00, 0x00, 0x1c, 0x00, 0x00, 0x00, 0xdc, 0xfe, 0xff, 0xff,
  0x0f, 0x00, 0x00, 0x00, 0x61, 0x72, 0x69, 0x74, 0x68, 0x2e, 0x63, 0x6f,
  0x6e, 0x73, 0x74, 0x61, 0x6e, 0x74, 0x33, 0x00, 0x01, 0x00, 0x00, 0x00,
  0x10, 0x00, 0x00, 0x00, 0x8e, 0xff, 0xff, 0xff, 0x00, 0x00, 0x00, 0x01,
  0x10, 0x00, 0x00, 0x00, 0x10, 0x00, 0x00, 0x00, 0x04, 0x00, 0x00, 0x00,
  0x1c, 0x00, 0x00, 0x00, 0x14, 0xff, 0xff, 0xff, 0x0f, 0x00, 0x00, 0x00,
  0x61, 0x72, 0x69, 0x74, 0x68, 0x2e, 0x63, 0x6f, 0x6e, 0x73, 0x74, 0x61,
  0x6e, 0x74, 0x32, 0x00, 0x01, 0x00, 0x00, 0x00, 0x20, 0x00, 0x00, 0x00,
  0xc6, 0xff, 0xff, 0xff, 0x00, 0x00, 0x00, 0x01, 0x10, 0x00, 0x00, 0x00,
  0x10, 0x00, 0x00, 0x00, 0x03, 0x00, 0x00, 0x00, 0x1c, 0x00, 0x00, 0x00,
  0x4c, 0xff, 0xff, 0xff, 0x0f, 0x00, 0x00, 0x00, 0x61, 0x72, 0x69, 0x74,
  0x68, 0x2e, 0x63, 0x6f, 0x6e, 0x73, 0x74, 0x61, 0x6e, 0x74, 0x31, 0x00,
  0x01, 0x00, 0x00, 0x00, 0x40, 0x00, 0x00, 0x00, 0x00, 0x00, 0x16, 0x00,
  0x18, 0x00, 0x14, 0x00, 0x00, 0x00, 0x10, 0x00, 0x0c, 0x00, 0x08, 0x00,
  0x00, 0x00, 0x00, 0x00, 0x00, 0x00, 0x07, 0x00, 0x16, 0x00, 0x00, 0x00,
  0x00, 0x00, 0x00, 0x01, 0x10, 0x00, 0x00, 0x00, 0x10, 0x00, 0x00, 0x00,
  0x02, 0x00, 0x00, 0x00, 0x1c, 0x00, 0x00, 0x00, 0x9c, 0xff, 0xff, 0xff,
  0x0e, 0x00, 0x00, 0x00, 0x61, 0x72, 0x69, 0x74, 0x68, 0x2e, 0x63, 0x6f,
  0x6e, 0x73, 0x74, 0x61, 0x6e, 0x74, 0x00, 0x00, 0x02, 0x00, 0x00, 0x00,
  0x40, 0x00, 0x00, 0x00, 0x02, 0x00, 0x00, 0x00, 0x00, 0x00, 0x16, 0x00,
  0x1c, 0x00, 0x18, 0x00, 0x00, 0x00, 0x14, 0x00, 0x10, 0x00, 0x0c, 0x00,
  0x00, 0x00, 0x00, 0x00, 0x08, 0x00, 0x07, 0x00, 0x16, 0x00, 0x00, 0x00,
  0x00, 0x00, 0x00, 0x01, 0x14, 0x00, 0x00, 0x00, 0x20, 0x00, 0x00, 0x00,
  0x20, 0x00, 0x00, 0x00, 0x01, 0x00, 0x00, 0x00, 0x3c, 0x00, 0x00, 0x00,
  0x02, 0x00, 0x00, 0x00, 0xff, 0xff, 0xff, 0xff, 0x02, 0x00, 0x00, 0x00,
  0x04, 0x00, 0x04, 0x00, 0x04, 0x00, 0x00, 0x00, 0x1e, 0x00, 0x00, 0x00,
  0x73, 0x65, 0x72, 0x76, 0x69, 0x6e, 0x67, 0x5f, 0x64, 0x65, 0x66, 0x61,
  0x75, 0x6c, 0x74, 0x5f, 0x6b, 0x65, 0x72, 0x61, 0x73, 0x5f, 0x74, 0x65,
  0x6e, 0x73, 0x6f, 0x72, 0x3a, 0x30, 0x00, 0x00, 0x02, 0x00, 0x00, 0x00,
  0x01, 0x00, 0x00, 0x00, 0x02, 0x00, 0x00, 0x00, 0x02, 0x00, 0x00, 0x00,
  0x2c, 0x00, 0x00, 0x00, 0x10, 0x00, 0x00, 0x00, 0x0c, 0x00, 0x0c, 0x00,
  0x0b, 0x00, 0x00, 0x00, 0x00, 0x00, 0x04, 0x00, 0x0c, 0x00, 0x00, 0x00,
  0x19, 0x00, 0x00, 0x00, 0x00, 0x00, 0x00, 0x19, 0x0c, 0x00, 0x10, 0x00,
  0x0f, 0x00, 0x00, 0x00, 0x08, 0x00, 0x04, 0x00, 0x0c, 0x00, 0x00, 0x00,
  0x09, 0x00, 0x00, 0x00, 0x0c, 0x00, 0x00, 0x00, 0x00, 0x00, 0x00, 0x09
};

