const unsigned char dht_anomaly_model_2_tflite[] = {
  0x1c, 0x00, 0x00, 0x00, 0x54, 0x46, 0x4c, 0x33, 0x14, 0x00, 0x20, 0x00,
  0x1c, 0x00, 0x18, 0x00, 0x14, 0x00, 0x10, 0x00, 0x0c, 0x00, 0x00, 0x00,
  0x08, 0x00, 0x04, 0x00, 0x14, 0x00, 0x00, 0x00, 0x1c, 0x00, 0x00, 0x00,
  0x8c, 0x00, 0x00, 0x00, 0xe4, 0x00, 0x00, 0x00, 0x30, 0x16, 0x00, 0x00,
  0x40, 0x16, 0x00, 0x00, 0x68, 0x24, 0x00, 0x00, 0x03, 0x00, 0x00, 0x00,
  0x01, 0x00, 0x00, 0x00, 0x04, 0x00, 0x00, 0x00, 0x2e, 0xe7, 0xff, 0xff,
  0x0c, 0x00, 0x00, 0x00, 0x1c, 0x00, 0x00, 0x00, 0x3c, 0x00, 0x00, 0x00,
  0x0f, 0x00, 0x00, 0x00, 0x73, 0x65, 0x72, 0x76, 0x69, 0x6e, 0x67, 0x5f,
  0x64, 0x65, 0x66, 0x61, 0x75, 0x6c, 0x74, 0x00, 0x01, 0x00, 0x00, 0x00,
  0x04, 0x00, 0x00, 0x00, 0x90, 0xff, 0xff, 0xff, 0x1a, 0x00, 0x00, 0x00,
  0x04, 0x00, 0x00, 0x00, 0x08, 0x00, 0x00, 0x00, 0x6f, 0x75, 0x74, 0x70,
  0x75, 0x74, 0x5f, 0x30, 0x00, 0x00, 0x00, 0x00, 0x01, 0x00, 0x00, 0x00,
  0x04, 0x00, 0x00, 0x00, 0xd6, 0xe8, 0xff, 0xff, 0x04, 0x00, 0x00, 0x00,
  0x0f, 0x00, 0x00, 0x00, 0x6b, 0x65, 0x72, 0x61, 0x73, 0x5f, 0x74, 0x65,
  0x6e, 0x73, 0x6f, 0x72, 0x5f, 0x32, 0x38, 0x00, 0x02, 0x00, 0x00, 0x00,
  0x34, 0x00, 0x00, 0x00, 0x04, 0x00, 0x00, 0x00, 0xdc, 0xff, 0xff, 0xff,
  0x1d, 0x00, 0x00, 0x00, 0x04, 0x00, 0x00, 0x00, 0x13, 0x00, 0x00, 0x00,
  0x43, 0x4f, 0x4e, 0x56, 0x45, 0x52, 0x53, 0x49, 0x4f, 0x4e, 0x5f, 0x4d,
  0x45, 0x54, 0x41, 0x44, 0x41, 0x54, 0x41, 0x00, 0x08, 0x00, 0x0c, 0x00,
  0x08, 0x00, 0x04, 0x00, 0x08, 0x00, 0x00, 0x00, 0x1c, 0x00, 0x00, 0x00,
  0x04, 0x00, 0x00, 0x00, 0x13, 0x00, 0x00, 0x00, 0x6d, 0x69, 0x6e, 0x5f,
  0x72, 0x75, 0x6e, 0x74, 0x69, 0x6d, 0x65, 0x5f, 0x76, 0x65, 0x72, 0x73,
  0x69, 0x6f, 0x6e, 0x00, 0x1e, 0x00, 0x00, 0x00, 0x48, 0x15, 0x00, 0x00,
  0x40, 0x15, 0x00, 0x00, 0xf0, 0x14, 0x00, 0x00, 0xd4, 0x14, 0x00, 0x00,
  0xb8, 0x14, 0x00, 0x00, 0x28, 0x13, 0x00, 0x00, 0xd8, 0x11, 0x00, 0x00,
  0xc8, 0x01, 0x00, 0x00, 0xa4, 0x01, 0x00, 0x00, 0x54, 0x01, 0x00, 0x00,
  0x40, 0x01, 0x00, 0x00, 0x38, 0x01, 0x00, 0x00, 0x24, 0x01, 0x00, 0x00,
  0x10, 0x01, 0x00, 0x00, 0xfc, 0x00, 0x00, 0x00, 0xf4, 0x00, 0x00, 0x00,
  0xec, 0x00, 0x00, 0x00, 0xe4, 0x00, 0x00, 0x00, 0xdc, 0x00, 0x00, 0x00,
  0xd4, 0x00, 0x00, 0x00, 0xcc, 0x00, 0x00, 0x00, 0xc4, 0x00, 0x00, 0x00,
  0xbc, 0x00, 0x00, 0x00, 0xb4, 0x00, 0x00, 0x00, 0xac, 0x00, 0x00, 0x00,
  0xa4, 0x00, 0x00, 0x00, 0x9c, 0x00, 0x00, 0x00, 0x94, 0x00, 0x00, 0x00,
  0x74, 0x00, 0x00, 0x00, 0x04, 0x00, 0x00, 0x00, 0xca, 0xe9, 0xff, 0xff,
  0x04, 0x00, 0x00, 0x00, 0x60, 0x00, 0x00, 0x00, 0x10, 0x00, 0x00, 0x00,
  0x00, 0x00, 0x00, 0x00, 0x08, 0x00, 0x0e, 0x00, 0x08, 0x00, 0x04, 0x00,
  0x08, 0x00, 0x00, 0x00, 0x10, 0x00, 0x00, 0x00, 0x24, 0x00, 0x00, 0x00,
  0x00, 0x00, 0x06, 0x00, 0x08, 0x00, 0x04, 0x00, 0x06, 0x00, 0x00, 0x00,
  0x04, 0x00, 0x00, 0x00, 0x00, 0x00, 0x00, 0x00, 0x0c, 0x00, 0x18, 0x00,
  0x14, 0x00, 0x10, 0x00, 0x0c, 0x00, 0x04, 0x00, 0x0c, 0x00, 0x00, 0x00,
  0xa9, 0xc0, 0xd7, 0x6a, 0x2a, 0x0c, 0x2f, 0xeb, 0x02, 0x00, 0x00, 0x00,
  0x02, 0x00, 0x00, 0x00, 0x04, 0x00, 0x00, 0x00, 0x06, 0x00, 0x00, 0x00,
  0x32, 0x2e, 0x31, 0x39, 0x2e, 0x30, 0x00, 0x00, 0x36, 0xea, 0xff, 0xff,
  0x04, 0x00, 0x00, 0x00, 0x10, 0x00, 0x00, 0x00, 0x31, 0x2e, 0x31, 0x31,
  0x2e, 0x30, 0x00, 0x00, 0x00, 0x00, 0x00, 0x00, 0x00, 0x00, 0x00, 0x00,
  0xb4, 0xdd, 0xff, 0xff, 0xb8, 0xdd, 0xff, 0xff, 0xbc, 0xdd, 0xff, 0xff,
  0xc0, 0xdd, 0xff, 0xff, 0xc4, 0xdd, 0xff, 0xff, 0xc8, 0xdd, 0xff, 0xff,
  0xcc, 0xdd, 0xff, 0xff, 0xd0, 0xdd, 0xff, 0xff, 0xd4, 0xdd, 0xff, 0xff,
  0xd8, 0xdd, 0xff, 0xff, 0xdc, 0xdd, 0xff, 0xff, 0xe0, 0xdd, 0xff, 0xff,
  0xe4, 0xdd, 0xff, 0xff, 0x86, 0xea, 0xff, 0xff, 0x04, 0x00, 0x00, 0x00,
  0x04, 0x00, 0x00, 0x00, 0xfd, 0xff, 0xff, 0xff, 0x96, 0xea, 0xff, 0xff,
  0x04, 0x00, 0x00, 0x00, 0x04, 0x00, 0x00, 0x00, 0x40, 0x00, 0x00, 0x00,
  0xa6, 0xea, 0xff, 0xff, 0x04, 0x00, 0x00, 0x00, 0x04, 0x00, 0x00, 0x00,
  0x00, 0x00, 0x00, 0x00, 0x18, 0xde, 0xff, 0xff, 0xba, 0xea, 0xff, 0xff,
  0x04, 0x00, 0x00, 0x00, 0x04, 0x00, 0x00, 0x00, 0x01, 0x00, 0x00, 0x00,
  0xca, 0xea, 0xff, 0xff, 0x04, 0x00, 0x00, 0x00, 0x40, 0x00, 0x00, 0x00,
  0x43, 0xa9, 0x0f, 0x3e, 0xf1, 0x78, 0x0c, 0xbe, 0x3f, 0x41, 0x25, 0xbe,
  0x30, 0x8c, 0xb8, 0xbd, 0xbf, 0x0a, 0x0b, 0xbf, 0x32, 0x84, 0xd8, 0x3e,
  0x8c, 0x14, 0xdd, 0xbd, 0x41, 0xab, 0x7a, 0xbe, 0xf2, 0x66, 0x16, 0xc0,
  0x47, 0xa8, 0xc7, 0xbe, 0x0e, 0x3c, 0x5c, 0xc0, 0x58, 0xca, 0xb9, 0xbe,
  0xc2, 0x21, 0xf6, 0xbe, 0x02, 0xa3, 0x59, 0xc0, 0x39, 0x4b, 0x1c, 0xc0,
  0x14, 0x98, 0x0f, 0xbf, 0x16, 0xeb, 0xff, 0xff, 0x04, 0x00, 0x00, 0x00,
  0x14, 0x00, 0x00, 0x00, 0x94, 0x26, 0x3b, 0x3e, 0xc8, 0x27, 0x11, 0xc0,
  0x0c, 0x22, 0x2a, 0xc0, 0xbc, 0x95, 0xbc, 0xc0, 0x2d, 0x3e, 0x7a, 0x40,
  0x36, 0xeb, 0xff, 0xff, 0x04, 0x00, 0x00, 0x00, 0x00, 0x10, 0x00, 0x00,
  0x77, 0x19, 0x2c, 0x3d, 0x24, 0xa6, 0x68, 0xbe, 0xbd, 0x43, 0x52, 0xbe,
  0x2b, 0xaa, 0x4c, 0x3e, 0x12, 0x70, 0xdc, 0xbe, 0x71, 0xd9, 0x07, 0x3c,
  0x73, 0x23, 0xda, 0xbd, 0x83, 0x68, 0x4d, 0xbe, 0x9d, 0xcd, 0xa7, 0x3b,
  0x02, 0x0c, 0x7f, 0xbe, 0xd4, 0x28, 0x3b, 0xbd, 0x5c, 0xcf, 0x97, 0xbe,
  0x18, 0x21, 0x7b, 0x3d, 0xf9, 0xb2, 0x6d, 0xbe, 0xf6, 0x79, 0x8d, 0x3d,
  0x21, 0x63, 0x61, 0xbe, 0xe3, 0xa4, 0x2e, 0x3d, 0x10, 0xa6, 0x07, 0xbe,
  0x21, 0xaa, 0x77, 0x3d, 0x77, 0x69, 0x8e, 0x3e, 0x1e, 0x28, 0x34, 0xbd,
  0x58, 0xfb, 0xd3, 0xbe, 0xed, 0x7f, 0x94, 0xbe, 0x14, 0xf6, 0x71, 0xbe,
  0x21, 0xd1, 0x08, 0x3e, 0xf7, 0xbf, 0x2c, 0xbe, 0x3f, 0x93, 0xf0, 0xbe,
  0x78, 0x55, 0x77, 0xbd, 0x33, 0xe1, 0xef, 0xbd, 0x04, 0x93, 0xf8, 0xbd,
  0xc1, 0x47, 0xa2, 0xbe, 0x0d, 0x47, 0x54, 0xbe, 0x03, 0x7c, 0x77, 0xbe,
  0x8c, 0xef, 0xe2, 0xbc, 0xb5, 0x5f, 0x59, 0x3e, 0x11, 0x53, 0xe5, 0x3e,
  0x0e, 0x9f, 0x6d, 0xbe, 0x96, 0xf6, 0xbc, 0xbe, 0xbc, 0x8f, 0x17, 0xbe,
  0x8d, 0xc0, 0x4a, 0xbe, 0x41, 0x0a, 0x2e, 0x3e, 0x79, 0x4c, 0x9b, 0xbc,
  0x55, 0x18, 0xac, 0x3d, 0xc0, 0x27, 0x7b, 0xbe, 0xbc, 0x85, 0xa6, 0xbd,
  0xa6, 0x07, 0x62, 0x3d, 0x2b, 0x60, 0xa8, 0xbe, 0x0d, 0x65, 0x38, 0x3e,
  0x32, 0xad, 0x34, 0xbd, 0x2d, 0x41, 0xb6, 0xbe, 0xfe, 0x2c, 0x28, 0x3e,
  0xd9, 0xc5, 0x5b, 0x3e, 0x3a, 0x6d, 0x7f, 0xbe, 0x71, 0x12, 0xc2, 0xbe,
  0x42, 0x36, 0x19, 0xbe, 0x15, 0x49, 0x91, 0xbe, 0xf3, 0x3e, 0x67, 0x3e,
  0x4e, 0x29, 0x06, 0xbe, 0x14, 0x01, 0xe5, 0xbc, 0xc3, 0x63, 0x93, 0xbe,
  0x31, 0x66, 0x2e, 0xbd, 0x02, 0x2d, 0x0d, 0xbe, 0x9f, 0xa0, 0x53, 0xbe,
  0xc4, 0x88, 0x85, 0x3e, 0x15, 0xbb, 0xc3, 0x3d, 0x94, 0x94, 0xc1, 0x3d,
  0x6a, 0x4f, 0xea, 0x3d, 0x7a, 0x94, 0xa7, 0xbd, 0x88, 0xf1, 0x9c, 0x3d,
  0x39, 0x71, 0xd9, 0xbd, 0x74, 0x45, 0x1b, 0x3e, 0x25, 0xb9, 0x85, 0x3d,
  0x59, 0xaf, 0x76, 0xbe, 0x11, 0x2d, 0xa6, 0xbd, 0xce, 0x16, 0xac, 0x3d,
  0xf3, 0x4f, 0x9d, 0x3d, 0x7e, 0x50, 0x42, 0x3e, 0x2a, 0x3a, 0x80, 0xbe,
  0x8b, 0xa4, 0x19, 0x3d, 0x28, 0xb8, 0x19, 0x3e, 0x75, 0xee, 0xb3, 0x3d,
  0xf6, 0x6e, 0xb3, 0xbd, 0x47, 0xd3, 0x5f, 0xbe, 0x4b, 0x8a, 0xf4, 0xbd,
  0x27, 0xa3, 0x03, 0x3e, 0x6f, 0xa8, 0x8a, 0xbd, 0xd0, 0xae, 0x6c, 0xbe,
  0x4d, 0x06, 0x6b, 0xbe, 0xd0, 0x82, 0xaa, 0xbd, 0xf7, 0xc8, 0x69, 0xbe,
  0xd0, 0x34, 0x5f, 0xbe, 0xc0, 0xc0, 0xac, 0xbe, 0xdf, 0xd5, 0x0a, 0xbe,
  0x91, 0xb3, 0x5f, 0xbd, 0x34, 0xd8, 0xa5, 0x3d, 0x4a, 0xa8, 0x07, 0xbe,
  0x13, 0x1c, 0xe7, 0xbd, 0x43, 0x79, 0x5a, 0xbd, 0xd4, 0x55, 0xac, 0xbd,
  0x7d, 0x84, 0x6b, 0xbe, 0x76, 0x2f, 0xf9, 0xbd, 0x7d, 0x3d, 0x05, 0xbe,
  0x2f, 0xef, 0x8d, 0xbe, 0x95, 0xe6, 0x8b, 0xbe, 0x07, 0x3c, 0xcd, 0xbd,
  0xe8, 0x98, 0x5b, 0xbd, 0xae, 0xec, 0x27, 0xbe, 0xf7, 0x4c, 0x8a, 0xbe,
  0xa3, 0x51, 0x45, 0xbc, 0xd0, 0x10, 0x7d, 0xbd, 0x94, 0xb6, 0x72, 0x3d,
  0x2f, 0x4b, 0xab, 0xbd, 0x89, 0xf5, 0x83, 0xbe, 0xc9, 0xe3, 0x82, 0xbe,
  0x13, 0xe8, 0x30, 0xbe, 0x3d, 0xf2, 0x23, 0x3c, 0xe4, 0xc7, 0x96, 0xbe,
  0xe1, 0x24, 0x26, 0xbd, 0x94, 0x69, 0x08, 0xbe, 0x24, 0xff, 0x89, 0xbe,
  0xc1, 0xac, 0xe6, 0xbd, 0xbc, 0x97, 0x08, 0x3e, 0x13, 0xf9, 0xaf, 0xbe,
  0xd0, 0x65, 0x23, 0x3e, 0x2d, 0x80, 0x95, 0xbe, 0x3c, 0xed, 0x97, 0xbe,
  0x8b, 0xb1, 0xd7, 0xbd, 0xcf, 0xa9, 0xf0, 0xbd, 0x86, 0xd8, 0xcc, 0xbd,
  0xda, 0x6e, 0xa6, 0xbe, 0xd9, 0xd1, 0x5d, 0xbe, 0x98, 0x9a, 0xb4, 0xbc,
  0x99, 0x47, 0x6e, 0x3e, 0x39, 0xb5, 0x9a, 0xbe, 0x7b, 0x70, 0x43, 0xbe,
  0x60, 0x73, 0x2c, 0xbf, 0x0d, 0xfe, 0x12, 0xbe, 0x14, 0x67, 0xef, 0xbe,
  0xfb, 0x14, 0x07, 0x3e, 0xc0, 0xe8, 0x20, 0xbd, 0xa8, 0xe5, 0xf5, 0xbd,
  0x28, 0x15, 0x7c, 0x3e, 0xe6, 0x17, 0xa2, 0xbe, 0xbf, 0x4e, 0x14, 0x3e,
  0x6e, 0xfd, 0x91, 0xbe, 0x9e, 0x66, 0xea, 0xbd, 0xcc, 0x27, 0xa4, 0xbe,
  0xaa, 0xa1, 0x93, 0x3e, 0xdf, 0x0c, 0x8f, 0xbd, 0x84, 0xcd, 0x34, 0x3d,
  0x14, 0xa1, 0x9d, 0xbe, 0x2b, 0x21, 0x19, 0xbf, 0xc6, 0x6c, 0x9e, 0xba,
  0x4d, 0x2f, 0x94, 0xbe, 0x66, 0xc5, 0x17, 0xbe, 0x02, 0x34, 0x42, 0xbe,
  0x5f, 0x7e, 0x40, 0xbe, 0x15, 0x88, 0xef, 0x3d, 0x77, 0xcf, 0xb1, 0xbe,
  0x3f, 0xe2, 0xdb, 0xbd, 0x69, 0x2d, 0xc6, 0xbe, 0xa1, 0x63, 0x86, 0xba,
  0x18, 0x3a, 0xc5, 0xbe, 0x80, 0xb8, 0x31, 0x3f, 0x50, 0x89, 0xe3, 0x3d,
  0x30, 0x2d, 0x7d, 0xbe, 0x03, 0x9e, 0x90, 0xbe, 0x40, 0x90, 0xb1, 0xbe,
  0x44, 0xcf, 0x41, 0x3d, 0x01, 0x08, 0x7e, 0xbe, 0xa7, 0x8f, 0x36, 0xbd,
  0xd2, 0x2d, 0x9d, 0xbe, 0x24, 0x6c, 0x76, 0xbe, 0xf2, 0xc0, 0x9c, 0x3e,
  0x0c, 0xa0, 0xdb, 0xbe, 0x2e, 0xdb, 0x24, 0x3d, 0xe7, 0x81, 0x56, 0xbe,
  0xfe, 0xec, 0x98, 0xbe, 0x7c, 0xde, 0x7f, 0xbe, 0x31, 0x5c, 0x87, 0x3f,
  0x1e, 0x0b, 0xd4, 0x3d, 0x7c, 0x99, 0xa4, 0xbe, 0x86, 0x4f, 0x6c, 0xbc,
  0xdf, 0x8c, 0x55, 0xbf, 0x93, 0x3c, 0x2d, 0x3e, 0x23, 0x56, 0x87, 0xbe,
  0xaf, 0x9d, 0x04, 0x3b, 0xc7, 0x6a, 0xa2, 0xbd, 0x51, 0xeb, 0x65, 0x3d,
  0xfc, 0x54, 0x0a, 0xbe, 0x54, 0x3f, 0xc4, 0xbe, 0x29, 0xb4, 0x91, 0x3d,
  0xb3, 0x21, 0xb4, 0xbd, 0xfa, 0xde, 0x83, 0xbd, 0xf9, 0x44, 0x43, 0x3e,
  0x28, 0x48, 0xc2, 0x3c, 0x0d, 0x8a, 0x3f, 0xbd, 0x73, 0x44, 0x11, 0xbd,
  0x36, 0xc6, 0xfb, 0xbd, 0x14, 0x9c, 0x17, 0x3e, 0xbb, 0x3a, 0x42, 0xbe,
  0xc3, 0x38, 0x16, 0xbe, 0xbe, 0x84, 0x4f, 0xbe, 0x67, 0x9b, 0x89, 0xbe,
  0xd2, 0x14, 0x53, 0xbe, 0x8b, 0xb3, 0xb4, 0xbe, 0x10, 0x99, 0xb3, 0x3a,
  0x66, 0x39, 0x04, 0xbe, 0x0e, 0xc7, 0x8f, 0x3d, 0x86, 0xb5, 0x06, 0xbe,
  0x4f, 0xeb, 0xae, 0x3d, 0xf6, 0x6a, 0x94, 0xbd, 0xd3, 0x34, 0x04, 0xbe,
  0x33, 0xe3, 0x2f, 0x3e, 0x63, 0x54, 0x9d, 0xbe, 0x27, 0x05, 0x8f, 0xbd,
  0x31, 0x3f, 0x09, 0xbe, 0xb8, 0x32, 0x00, 0x3e, 0xea, 0x20, 0xab, 0xbe,
  0x27, 0x72, 0x89, 0xbe, 0xba, 0x11, 0xdb, 0xbd, 0x0c, 0xca, 0x86, 0xba,
  0x84, 0x93, 0x94, 0xbd, 0xc0, 0xf9, 0x5e, 0xbe, 0x91, 0xa6, 0x99, 0xbe,
  0x9d, 0x02, 0xe2, 0xbd, 0x7f, 0x54, 0x5a, 0x3e, 0xad, 0xf8, 0xd5, 0x3d,
  0x8f, 0xb8, 0x4f, 0x3d, 0x18, 0x6e, 0x10, 0x3e, 0xdc, 0x38, 0x9b, 0xbd,
  0xd5, 0x82, 0xc7, 0xbd, 0x2e, 0xcf, 0xd3, 0x3c, 0xca, 0xb4, 0x8b, 0x3d,
  0xf9, 0xce, 0x37, 0x3c, 0xee, 0x36, 0x71, 0xbe, 0x06, 0x2d, 0x64, 0xbe,
  0x00, 0x0f, 0x2d, 0xbe, 0x0c, 0x86, 0xae, 0x3d, 0x4a, 0xa7, 0x0d, 0x3e,
  0x79, 0x3f, 0x7a, 0x3c, 0x6e, 0x94, 0x25, 0x3e, 0x6e, 0x51, 0x4d, 0xbe,
  0x3d, 0xa5, 0x92, 0xbe, 0x50, 0x8b, 0x59, 0xbe, 0x1b, 0x1f, 0x90, 0x3d,
  0xf4, 0x45, 0xa8, 0xbc, 0x91, 0xd2, 0x90, 0x3d, 0x8b, 0xdd, 0x0a, 0xbe,
  0xe8, 0x0d, 0x3f, 0xbe, 0xb5, 0x1a, 0x6f, 0x3c, 0x46, 0xa2, 0x69, 0xbe,
  0x3c, 0xcb, 0x3f, 0xbe, 0x0b, 0x7e, 0x80, 0xbe, 0x47, 0x13, 0x77, 0x3d,
  0xac, 0xb2, 0xa9, 0xbb, 0x27, 0x12, 0xd3, 0x3d, 0xa7, 0x2d, 0x8d, 0xbe,
  0xc0, 0xaf, 0x80, 0x3e, 0x66, 0xde, 0x65, 0x3e, 0x2f, 0xd4, 0xd0, 0xbd,
  0x1f, 0x16, 0x3b, 0xbd, 0x2c, 0x89, 0x41, 0x3e, 0xc4, 0x6a, 0x71, 0xbe,
  0x19, 0xe3, 0x32, 0x3e, 0x1d, 0xf8, 0xde, 0x3d, 0x20, 0x45, 0x29, 0xbe,
  0xe5, 0xac, 0x65, 0x3e, 0x96, 0x48, 0x00, 0xbd, 0x05, 0x26, 0x62, 0x3d,
  0x5f, 0xc9, 0xee, 0x3d, 0xdf, 0xfa, 0x58, 0x3e, 0x26, 0x59, 0x03, 0x3e,
  0x19, 0x68, 0xfc, 0xbe, 0x16, 0x5b, 0x6e, 0x3d, 0x9a, 0x84, 0x35, 0x3e,
  0x0b, 0x74, 0x97, 0x3d, 0x7e, 0x12, 0x8c, 0xbe, 0xfb, 0xc0, 0x34, 0xbe,
  0x7f, 0x29, 0xda, 0x3d, 0x4d, 0x5c, 0xfc, 0xbd, 0x5a, 0xe7, 0xe9, 0xbd,
  0x8b, 0xb6, 0x80, 0xbe, 0x3b, 0xfe, 0x89, 0x3e, 0x35, 0x50, 0x82, 0xbe,
  0x8c, 0x07, 0xd5, 0xbe, 0x13, 0xea, 0x2e, 0xbe, 0x85, 0xa3, 0x0f, 0x3f,
  0x02, 0xa2, 0x32, 0x3e, 0x3f, 0x69, 0xd5, 0xbe, 0x35, 0xea, 0x1b, 0x3d,
  0x32, 0x5c, 0x9e, 0x3c, 0x6b, 0xfe, 0x56, 0xbd, 0x93, 0x9b, 0x1b, 0x3e,
  0x69, 0xea, 0xa0, 0xbe, 0x54, 0x94, 0x03, 0x3d, 0x8f, 0xc0, 0x44, 0x3e,
  0x06, 0x95, 0x05, 0xbd, 0xcc, 0xab, 0x72, 0xbe, 0x59, 0x03, 0x46, 0x3e,
  0x80, 0x93, 0x86, 0xbc, 0x71, 0x10, 0xa1, 0xbe, 0x5f, 0x44, 0x9e, 0xbe,
  0x82, 0x50, 0xe6, 0x3e, 0x0e, 0x76, 0x5b, 0x3e, 0xda, 0xcd, 0xae, 0x3c,
  0x3b, 0x2c, 0x79, 0xbd, 0x4e, 0x0e, 0xff, 0xbe, 0x8f, 0x83, 0x7f, 0xbd,
  0xe5, 0xe4, 0x78, 0x3d, 0x96, 0xa1, 0xce, 0xbd, 0x5b, 0x0f, 0x2a, 0xbe,
  0xd7, 0x24, 0x82, 0xbe, 0x9c, 0x18, 0xa3, 0xbe, 0x1e, 0x9e, 0xd5, 0xbd,
  0x0b, 0xf3, 0xa8, 0x3d, 0xa6, 0xf3, 0xa6, 0xbd, 0x85, 0x69, 0x00, 0x3d,
  0x34, 0x3b, 0x10, 0x3c, 0x1e, 0x0d, 0x02, 0x3f, 0x0d, 0xcf, 0x8b, 0x3e,
  0x7a, 0xd3, 0x22, 0x3c, 0x7b, 0xb1, 0x4c, 0xbe, 0x10, 0xc9, 0xdb, 0xbc,
  0xa2, 0xea, 0xa3, 0xbe, 0x45, 0x2f, 0x86, 0x3c, 0x14, 0x1f, 0xc6, 0xbd,
  0xed, 0xc5, 0x26, 0xbe, 0xe5, 0x5f, 0x75, 0x3e, 0x7a, 0x22, 0xb2, 0x3d,
  0x14, 0x63, 0x17, 0x3e, 0x4d, 0x7e, 0x10, 0xbe, 0xb2, 0x38, 0xfd, 0x3b,
  0x48, 0x93, 0x89, 0x3e, 0x26, 0x14, 0x8b, 0xbe, 0xdd, 0xc0, 0x0a, 0x3c,
  0x67, 0x66, 0x89, 0x3e, 0xae, 0x05, 0x61, 0x3e, 0xd2, 0xf8, 0x6d, 0xbe,
  0xd5, 0x2e, 0x8e, 0x3e, 0xab, 0x48, 0x96, 0x3d, 0x94, 0xd9, 0x8f, 0xbe,
  0x54, 0x7d, 0xac, 0xbe, 0x59, 0x6d, 0x30, 0x3e, 0xc5, 0x04, 0xae, 0x3c,
  0x3f, 0x3c, 0x0b, 0xbd, 0x67, 0xc5, 0x25, 0x3e, 0x6f, 0x03, 0x9b, 0xbe,
  0x7e, 0xa4, 0x75, 0x3e, 0x63, 0x59, 0xea, 0xbc, 0x04, 0xaa, 0xed, 0xbd,
  0x42, 0x8d, 0x96, 0xbe, 0xe9, 0xd8, 0x6d, 0x3e, 0x47, 0x60, 0x3a, 0xbe,
  0xa5, 0xbc, 0x68, 0xbc, 0x2e, 0xab, 0xee, 0x3c, 0xb4, 0xa8, 0x7a, 0xbe,
  0x13, 0xe7, 0xda, 0xbd, 0x51, 0x56, 0x7a, 0x3e, 0xcf, 0x6e, 0x50, 0x3e,
  0xc0, 0xf3, 0x48, 0xbe, 0x49, 0x9c, 0x35, 0x3e, 0xe4, 0x91, 0x0a, 0x3f,
  0x47, 0x07, 0x4b, 0xbe, 0x87, 0xdb, 0x78, 0x3e, 0xbf, 0xc5, 0x63, 0x3e,
  0xf6, 0x64, 0x88, 0xbe, 0xc0, 0xf8, 0xcd, 0xbe, 0xca, 0x90, 0x02, 0xbd,
  0xce, 0xcb, 0x23, 0xbe, 0xa9, 0x2d, 0x30, 0x3e, 0x90, 0x72, 0xde, 0xbe,
  0xf1, 0xbf, 0xb9, 0x3d, 0x7a, 0xd1, 0x8b, 0xbe, 0xaa, 0x2c, 0xe0, 0xbe,
  0x2d, 0x6b, 0x41, 0x3e, 0xa3, 0x0e, 0x37, 0xbe, 0xa4, 0xe1, 0x36, 0x3d,
  0x69, 0x06, 0x67, 0xbc, 0xd0, 0x14, 0x46, 0xbe, 0x9f, 0xc6, 0x8a, 0xbd,
  0x4c, 0xfd, 0xbc, 0x3e, 0xde, 0x79, 0x5b, 0xbe, 0x7f, 0xe9, 0x18, 0x3d,
  0x24, 0xef, 0x1a, 0xbe, 0xa5, 0xea, 0x89, 0xbe, 0xa0, 0x1f, 0x90, 0xbc,
  0x00, 0x12, 0x22, 0xbe, 0xc3, 0xc8, 0x86, 0xbe, 0x25, 0x84, 0x56, 0xbc,
  0xe4, 0xe2, 0x14, 0x3d, 0xae, 0x6c, 0x59, 0x3d, 0x90, 0x48, 0x9d, 0xbe,
  0xf5, 0x81, 0x83, 0xbe, 0x34, 0x8f, 0x07, 0xbd, 0xaa, 0x81, 0x8f, 0xbe,
  0xa8, 0x92, 0x02, 0x3e, 0xf0, 0x0b, 0xa1, 0xbe, 0xf3, 0x46, 0x4d, 0x3d,
  0x74, 0xb4, 0x01, 0xbe, 0xa8, 0xae, 0x21, 0xbb, 0x79, 0x54, 0xae, 0xbd,
  0x0c, 0x51, 0x8e, 0xbc, 0x0f, 0x69, 0x0a, 0x3e, 0xe6, 0x10, 0xce, 0x3c,
  0x96, 0xec, 0xef, 0xbc, 0x45, 0x9c, 0x2a, 0x3e, 0x68, 0x00, 0x70, 0xbe,
  0x10, 0x99, 0x93, 0xbe, 0x39, 0x4c, 0x30, 0x3e, 0x91, 0xbe, 0x1a, 0xbd,
  0xcd, 0xe6, 0xf5, 0x3d, 0x0c, 0xad, 0xfd, 0x3d, 0xe2, 0x1d, 0xff, 0xbd,
  0xe3, 0x65, 0x28, 0x3d, 0xaf, 0x28, 0x62, 0x3d, 0xa7, 0x89, 0x5b, 0x3d,
  0x15, 0x6a, 0x59, 0x3e, 0x24, 0xbe, 0xaa, 0x3d, 0xd9, 0xbf, 0x8b, 0xbe,
  0x83, 0x6d, 0xe8, 0xbc, 0x46, 0x19, 0x99, 0xbe, 0x9d, 0x0f, 0x50, 0x3e,
  0xa1, 0xbc, 0x8f, 0xbe, 0x8a, 0x07, 0x57, 0xbe, 0xc6, 0xd0, 0x58, 0xbd,
  0x7d, 0x98, 0xe3, 0x3c, 0x5b, 0xec, 0xcb, 0xbd, 0xd8, 0x25, 0x80, 0xbd,
  0xc8, 0x48, 0x80, 0xbe, 0xb5, 0x80, 0x24, 0x3e, 0x3b, 0xc1, 0xb2, 0xbd,
  0x11, 0x08, 0xd7, 0xbd, 0x27, 0xf4, 0x32, 0x3e, 0x57, 0x4c, 0x8f, 0x3a,
  0xfe, 0xf5, 0x09, 0x3c, 0x80, 0x4f, 0x3e, 0x3e, 0x7e, 0xee, 0xb6, 0xbc,
  0x9e, 0x2d, 0x23, 0xbe, 0x37, 0x82, 0x1f, 0xbe, 0x9e, 0x20, 0x93, 0x3d,
  0x34, 0x10, 0x8e, 0xbe, 0x43, 0x21, 0x9d, 0xbe, 0x63, 0x13, 0xf4, 0x3d,
  0x56, 0x55, 0x01, 0xbe, 0xa1, 0x15, 0x4b, 0xbc, 0xf5, 0xec, 0x0b, 0x3d,
  0xef, 0x05, 0xa1, 0xbd, 0x43, 0x13, 0x90, 0x3e, 0xca, 0x03, 0x12, 0x3f,
  0xa8, 0x38, 0x98, 0x3e, 0x42, 0x39, 0x1f, 0xbe, 0xc8, 0xd0, 0x42, 0xbd,
  0x7b, 0x33, 0x3d, 0x3f, 0x56, 0x5d, 0x0b, 0x3e, 0xec, 0x57, 0x34, 0x3f,
  0x60, 0x98, 0xe8, 0xbd, 0x00, 0xb3, 0xb9, 0x3e, 0x2b, 0x64, 0xdf, 0x3e,
  0x07, 0x9c, 0xce, 0x3e, 0x40, 0x31, 0xb4, 0xbd, 0x77, 0xd3, 0xf2, 0xbc,
  0x13, 0x88, 0x31, 0x3e, 0x14, 0x7d, 0x4c, 0xbc, 0x4d, 0x8d, 0x51, 0x3e,
  0x7b, 0xb5, 0x9b, 0x3e, 0x93, 0xd0, 0xbb, 0xbd, 0xf2, 0x21, 0x91, 0xbe,
  0x71, 0x3b, 0x2b, 0xbe, 0x6e, 0xf2, 0x01, 0x3f, 0xe1, 0x14, 0x83, 0xbd,
  0x48, 0x60, 0x1d, 0x3f, 0x57, 0x71, 0xb8, 0xbe, 0x40, 0xb0, 0xe6, 0x3e,
  0x73, 0x26, 0x7b, 0xbe, 0xb3, 0xef, 0x06, 0x3e, 0x4d, 0x1e, 0xd1, 0xbd,
  0x54, 0x6b, 0x6d, 0xbe, 0xcb, 0x0c, 0x05, 0x3f, 0xe3, 0xeb, 0xa6, 0xbd,
  0xbd, 0x89, 0x28, 0x3f, 0xac, 0xb5, 0x23, 0x3f, 0x54, 0x89, 0x52, 0x3e,
  0xf2, 0x67, 0x1d, 0x3e, 0x98, 0x23, 0xc8, 0x3d, 0xb2, 0xfc, 0x37, 0x3d,
  0x3d, 0x83, 0xec, 0x3d, 0xef, 0x06, 0xaf, 0x3e, 0xb6, 0xed, 0xd0, 0xbd,
  0x00, 0x5a, 0x14, 0x3f, 0xd1, 0x2e, 0x52, 0xbe, 0x26, 0xc0, 0xa3, 0xbe,
  0x1c, 0xce, 0xc9, 0x3e, 0xbd, 0xe8, 0x87, 0xbd, 0xd2, 0xbf, 0xfc, 0x3e,
  0xb9, 0xe5, 0x81, 0x3d, 0x5d, 0x24, 0x8b, 0x3c, 0x86, 0x91, 0xc2, 0x3e,
  0x3a, 0x5b, 0x3a, 0xbc, 0xe6, 0x4c, 0xf4, 0x3e, 0x42, 0x15, 0xc5, 0x3d,
  0xdd, 0x0d, 0x0a, 0x3f, 0x23, 0x84, 0x11, 0xbe, 0xf3, 0x50, 0x06, 0x3f,
  0x38, 0x5c, 0xdb, 0x3e, 0xdd, 0x96, 0xef, 0x3e, 0x07, 0x8b, 0x6c, 0xbe,
  0xc3, 0x19, 0xbd, 0xbe, 0x6f, 0x30, 0x1a, 0xbd, 0x26, 0xfe, 0xc8, 0x3d,
  0x7f, 0xa6, 0x03, 0x3f, 0x96, 0xab, 0xfb, 0xbb, 0x39, 0xfd, 0xad, 0xbe,
  0x40, 0x4c, 0xf4, 0xbd, 0xed, 0x3d, 0x1a, 0x3e, 0x59, 0xd9, 0xc3, 0x3e,
  0x13, 0x72, 0x97, 0x3d, 0xf8, 0x85, 0xe4, 0xbe, 0xde, 0xa3, 0xa4, 0x3d,
  0x24, 0xea, 0xb0, 0xbe, 0x80, 0x10, 0xbb, 0x3d, 0x21, 0x11, 0x47, 0xbc,
  0x91, 0xdc, 0xb4, 0xbe, 0xfa, 0xff, 0x87, 0x3e, 0xa2, 0x94, 0x76, 0xbe,
  0x57, 0x06, 0x79, 0xbd, 0x52, 0xc6, 0x01, 0x3b, 0x0d, 0x3d, 0xe4, 0x3e,
  0x89, 0x81, 0x83, 0x3d, 0x0f, 0x1e, 0x88, 0xbe, 0xf8, 0x51, 0xa0, 0x3e,
  0x94, 0xef, 0xb6, 0xbd, 0x79, 0x89, 0x9b, 0xbb, 0x3c, 0x69, 0x30, 0xbd,
  0xbf, 0xff, 0xbb, 0xbe, 0xb0, 0xf2, 0x0a, 0xbd, 0xa4, 0x90, 0x15, 0x3d,
  0x53, 0x12, 0x96, 0xbe, 0x57, 0x3b, 0x4f, 0xbe, 0xf7, 0xeb, 0xad, 0x3e,
  0x22, 0x20, 0x0e, 0xbe, 0xde, 0x1b, 0x5e, 0x3d, 0x99, 0x20, 0xf7, 0xbe,
  0x73, 0xff, 0x44, 0x3f, 0x17, 0x15, 0xd8, 0x3d, 0x30, 0x22, 0x52, 0xbe,
  0x83, 0x91, 0x15, 0x3d, 0x4c, 0x13, 0x3e, 0xbe, 0x58, 0x63, 0xa0, 0xbd,
  0x76, 0x0f, 0x52, 0xbe, 0x74, 0xb1, 0xbb, 0xbe, 0x0c, 0xdc, 0xb9, 0xbe,
  0xa4, 0x01, 0xe0, 0x3d, 0xb2, 0xb9, 0x5b, 0xbe, 0xc7, 0xcd, 0x07, 0xbe,
  0xe9, 0x90, 0x48, 0x3e, 0x7c, 0xca, 0x8a, 0xbe, 0x2e, 0xe0, 0x06, 0xbd,
  0x2a, 0x23, 0x20, 0xbe, 0x83, 0x92, 0xf9, 0x3e, 0xc1, 0xbe, 0x8f, 0xbe,
  0xdb, 0xe5, 0xf6, 0xbd, 0x23, 0x0c, 0x5f, 0x3d, 0x49, 0x08, 0x93, 0xbe,
  0x03, 0xd9, 0xe4, 0x3d, 0x01, 0x43, 0x8e, 0xbe, 0xec, 0x8d, 0x81, 0xbe,
  0x05, 0x5d, 0xf2, 0x3d, 0xdb, 0x3e, 0x7f, 0xbe, 0xee, 0xfd, 0x4c, 0xbe,
  0x07, 0x1e, 0xd3, 0xbe, 0x46, 0xe7, 0x9b, 0x3e, 0xe7, 0x13, 0xce, 0x3d,
  0xbc, 0x9a, 0x87, 0xbe, 0xa9, 0x8d, 0x80, 0xbd, 0xc3, 0x95, 0x20, 0x3f,
  0xf7, 0xca, 0x13, 0x3f, 0x59, 0x17, 0x1f, 0x3e, 0x6d, 0x34, 0xb0, 0xbd,
  0x8e, 0x6f, 0x7c, 0xbe, 0x70, 0x6e, 0x8f, 0x3d, 0xf4, 0x2e, 0x16, 0x3f,
  0x51, 0x29, 0x78, 0x3e, 0x81, 0x4b, 0xe0, 0x3e, 0xe6, 0x16, 0x85, 0xbe,
  0xb5, 0xe7, 0x34, 0x3f, 0xf8, 0x49, 0xde, 0x3e, 0x8d, 0x08, 0x3b, 0x3e,
  0xa6, 0xe6, 0x88, 0x3e, 0x94, 0x72, 0xa3, 0xbd, 0x60, 0x22, 0x33, 0x3f,
  0x97, 0x63, 0xb2, 0x3e, 0x8d, 0xc2, 0x04, 0x3f, 0xa5, 0xdc, 0xd3, 0x3e,
  0x6e, 0x17, 0x18, 0xbe, 0x23, 0x05, 0xa9, 0xbe, 0xea, 0x9b, 0x22, 0xbd,
  0x3b, 0xb5, 0xcc, 0x3d, 0x6b, 0xbe, 0x01, 0xbe, 0x99, 0x29, 0x62, 0x3e,
  0xee, 0xa1, 0x30, 0xbd, 0x87, 0xc4, 0xc9, 0x3e, 0xc9, 0x3c, 0x1f, 0xbe,
  0x1e, 0x4d, 0x29, 0x3e, 0xd7, 0xd3, 0xf1, 0x3c, 0x0d, 0x6f, 0x35, 0xbe,
  0x9f, 0x9d, 0x8c, 0x3e, 0x1e, 0x09, 0x8b, 0x3e, 0x7a, 0xfd, 0x1a, 0x3f,
  0xbb, 0x79, 0xfd, 0x3e, 0xd4, 0xad, 0x08, 0xbd, 0xd7, 0x82, 0x19, 0x3e,
  0x9d, 0x41, 0x8d, 0x3d, 0x2f, 0x7f, 0xf1, 0x3e, 0xdb, 0x0d, 0x38, 0x3e,
  0x7b, 0xc6, 0xd6, 0x3e, 0x38, 0xb2, 0x98, 0x3e, 0x8a, 0x24, 0x62, 0x3f,
  0x78, 0xaa, 0xb5, 0xbe, 0xaa, 0xad, 0x91, 0x3d, 0xb5, 0x2d, 0x9c, 0x3e,
  0x4f, 0x88, 0xdf, 0x3c, 0xee, 0xcb, 0x20, 0x3f, 0xdf, 0x86, 0xc0, 0x3e,
  0xa0, 0x61, 0x2e, 0x3f, 0xe7, 0xff, 0xd7, 0x3d, 0x57, 0x6f, 0x2d, 0xbf,
  0xc4, 0x16, 0x8b, 0x3e, 0xd0, 0x53, 0xb2, 0xbc, 0x96, 0xb7, 0x04, 0x3f,
  0x14, 0x0f, 0x6a, 0x3e, 0x40, 0x8d, 0x6b, 0x3e, 0xfa, 0xe7, 0x7d, 0x3d,
  0xb9, 0x83, 0xa2, 0x3e, 0x22, 0x30, 0x70, 0xbd, 0x27, 0xbd, 0xf6, 0xbe,
  0x9a, 0xb3, 0x9a, 0x3e, 0x49, 0x59, 0x05, 0xbe, 0xd1, 0xca, 0x73, 0x3e,
  0x49, 0x1d, 0x5f, 0x3d, 0x00, 0x81, 0x92, 0xbd, 0x79, 0xe8, 0xe9, 0xbc,
  0xf5, 0x3a, 0x2f, 0x3e, 0xa5, 0xa9, 0x43, 0x3e, 0x59, 0xe6, 0x21, 0x3e,
  0xde, 0xe9, 0xbe, 0xbe, 0x6a, 0x27, 0x3f, 0xbe, 0x4e, 0xfc, 0x85, 0xbe,
  0x26, 0xaf, 0x2d, 0x3d, 0x29, 0xaf, 0xb2, 0xbe, 0x4d, 0xb8, 0xd4, 0xbe,
  0xfe, 0xcc, 0x9c, 0x3e, 0xd5, 0xc6, 0xd4, 0xbc, 0xcf, 0xf0, 0xfd, 0x3d,
  0xdd, 0x12, 0x99, 0xbe, 0x0b, 0xfa, 0x25, 0x3f, 0x83, 0x50, 0x84, 0xbe,
  0x51, 0x34, 0xa7, 0xbe, 0xb6, 0x38, 0x8f, 0x3e, 0x0c, 0x26, 0xc0, 0xbd,
  0x39, 0xdb, 0xc6, 0xbd, 0xcc, 0xc6, 0x54, 0xbc, 0x12, 0x92, 0x02, 0xbd,
  0xcb, 0xb9, 0xeb, 0xbe, 0xf2, 0xad, 0x5e, 0xbd, 0x1c, 0xcd, 0x02, 0xbf,
  0xda, 0x52, 0xaf, 0xbe, 0x04, 0x57, 0x14, 0x3e, 0x9d, 0x1f, 0xa2, 0xbd,
  0xa0, 0x5d, 0x7a, 0xbd, 0x39, 0x10, 0x7f, 0xbe, 0x89, 0x38, 0xcf, 0x3e,
  0xa2, 0x6b, 0xa3, 0xbe, 0x17, 0x93, 0x15, 0xbd, 0xd7, 0x92, 0xd8, 0xbd,
  0xde, 0x52, 0x0f, 0xbe, 0x69, 0x1a, 0xe7, 0xbd, 0x67, 0x4f, 0xb9, 0xbd,
  0x05, 0x0b, 0xa9, 0xbe, 0x0b, 0x4b, 0x24, 0xbe, 0x08, 0x2d, 0x1b, 0xbd,
  0x19, 0xf8, 0xf0, 0xbd, 0xbc, 0x38, 0x2b, 0x3d, 0xff, 0x39, 0x1b, 0xbc,
  0x45, 0x1d, 0x98, 0x3c, 0xb8, 0x56, 0xa5, 0xbd, 0x99, 0xc6, 0xbd, 0xbe,
  0x3c, 0x4f, 0x21, 0x3f, 0xd3, 0x72, 0x17, 0xbe, 0x6b, 0x4d, 0x57, 0xbe,
  0xb3, 0x44, 0xfc, 0x3d, 0x0e, 0x5b, 0xc7, 0xbe, 0x96, 0x84, 0xec, 0xbc,
  0x96, 0x88, 0x9b, 0x3c, 0x5c, 0x77, 0x9f, 0xbe, 0xbd, 0xe1, 0xb5, 0xbe,
  0xb3, 0x88, 0x93, 0xbe, 0x36, 0xd0, 0xec, 0xbb, 0xde, 0xe0, 0x3f, 0xbd,
  0x0d, 0x64, 0xd3, 0x3e, 0x68, 0x45, 0x6d, 0x3d, 0xae, 0x23, 0xcf, 0x3c,
  0xff, 0x93, 0x28, 0x3d, 0x81, 0x90, 0x17, 0x3f, 0x59, 0xdb, 0x65, 0x3e,
  0x8a, 0x15, 0x7e, 0x3d, 0xd1, 0x1b, 0x3f, 0xbe, 0xb3, 0x52, 0x42, 0xbd,
  0x1a, 0x76, 0x84, 0x3c, 0xf4, 0x8c, 0x9b, 0x3e, 0x56, 0xd3, 0x72, 0xbd,
  0x3c, 0x23, 0x48, 0xbd, 0xfa, 0x3d, 0x8a, 0x3c, 0xa2, 0x81, 0xb4, 0x3d,
  0xd1, 0x9b, 0xac, 0x3e, 0xe5, 0xf6, 0x33, 0xba, 0xde, 0xeb, 0x1e, 0x3e,
  0xe3, 0xc4, 0xfe, 0xbc, 0x42, 0x72, 0x08, 0x3e, 0xea, 0xf7, 0x74, 0x3e,
  0xe5, 0x02, 0xc9, 0x3d, 0x15, 0xc1, 0xb0, 0x3d, 0x39, 0x0e, 0x6f, 0xbe,
  0xc2, 0x94, 0x15, 0x3c, 0xcb, 0x91, 0x96, 0x3e, 0xd8, 0x40, 0xf9, 0x3e,
  0x4d, 0x03, 0x1b, 0x3d, 0x2d, 0x2c, 0xb6, 0x3e, 0xad, 0x90, 0x0b, 0x3d,
  0x6b, 0x43, 0xc9, 0x3e, 0x52, 0x04, 0x06, 0xbe, 0xbd, 0x12, 0x3f, 0xbe,
  0xc3, 0xfa, 0x0c, 0x3e, 0x83, 0x4e, 0x88, 0xbd, 0x52, 0x59, 0xe8, 0x3d,
  0x66, 0x2b, 0xe9, 0xbd, 0xeb, 0x57, 0x2f, 0x3e, 0xa8, 0x7d, 0x06, 0x3f,
  0x82, 0x37, 0x05, 0x3d, 0x11, 0x40, 0x95, 0xbe, 0x45, 0x7e, 0x99, 0x3c,
  0x04, 0x48, 0x75, 0x3e, 0x51, 0xd0, 0x8c, 0x3e, 0x4b, 0x83, 0xe8, 0x3e,
  0x64, 0xb4, 0x2c, 0x3e, 0xb9, 0x12, 0xb0, 0x3e, 0xe6, 0xf5, 0x37, 0xbe,
  0x3e, 0x7a, 0xec, 0xbd, 0x56, 0x9e, 0x49, 0xbe, 0x26, 0x78, 0x45, 0x3e,
  0x09, 0x74, 0x1d, 0x3e, 0xa4, 0x8b, 0x9a, 0x3c, 0x69, 0x0c, 0xc9, 0x3d,
  0x4c, 0x92, 0x26, 0x3d, 0x14, 0x58, 0x12, 0x3e, 0x18, 0x38, 0x76, 0x3e,
  0x10, 0x51, 0xf7, 0x3d, 0x9a, 0x15, 0xb5, 0x3e, 0xd2, 0x7d, 0x29, 0xbe,
  0x00, 0x0e, 0x13, 0x3e, 0x99, 0xeb, 0xb4, 0xbd, 0xf2, 0x2d, 0xf4, 0x3d,
  0x8c, 0x43, 0xe8, 0xbc, 0x10, 0x28, 0x73, 0x3e, 0x48, 0x07, 0x12, 0xbe,
  0x76, 0x8e, 0xbc, 0xbe, 0xa2, 0x50, 0x8f, 0x3e, 0xb7, 0x70, 0x06, 0xbe,
  0x87, 0x2b, 0xeb, 0xbe, 0x5f, 0xf6, 0xba, 0xbe, 0x49, 0x29, 0x4e, 0x3d,
  0xfe, 0x3d, 0xe5, 0xbe, 0xdc, 0x6a, 0x8b, 0xbb, 0xf2, 0xf4, 0xba, 0xbd,
  0x32, 0x09, 0x6b, 0xbe, 0x36, 0x4d, 0xa2, 0xbd, 0xad, 0x6b, 0x86, 0x3d,
  0x88, 0x57, 0x82, 0xbe, 0xe4, 0xe3, 0x24, 0xbf, 0x0b, 0x59, 0xc2, 0xbe,
  0x7a, 0x4b, 0xb5, 0xbd, 0xb0, 0x52, 0x0a, 0x3b, 0x7f, 0x32, 0xb5, 0xbd,
  0xd9, 0xb4, 0x62, 0x3e, 0x8b, 0xa0, 0xb7, 0xbe, 0x20, 0x91, 0xcf, 0xbe,
  0x2c, 0xa0, 0xde, 0xbc, 0x09, 0x1b, 0xcf, 0xbc, 0x71, 0x6c, 0x2a, 0xbe,
  0x85, 0x17, 0xbe, 0xbc, 0x7e, 0x50, 0xc6, 0xbe, 0xc4, 0x73, 0x79, 0xbe,
  0x39, 0xcf, 0x12, 0x3d, 0x50, 0x5e, 0xe3, 0xbd, 0x58, 0xea, 0x32, 0xbe,
  0x1c, 0xd6, 0xfe, 0xbd, 0xfa, 0xf5, 0x82, 0xbe, 0x5d, 0x77, 0x18, 0xbd,
  0x65, 0x62, 0x7c, 0x3d, 0x06, 0xe6, 0x63, 0x3e, 0xe5, 0x3e, 0xdd, 0xbe,
  0x6d, 0x1e, 0xae, 0xbe, 0xb0, 0xb0, 0x7f, 0xbd, 0x00, 0xfa, 0x17, 0x3f,
  0x12, 0xe4, 0x0e, 0x3e, 0xec, 0x08, 0x58, 0xbd, 0x88, 0xd5, 0x19, 0xbd,
  0x96, 0x4b, 0xae, 0xbe, 0xd4, 0xf1, 0xb5, 0xbd, 0x74, 0x3a, 0x31, 0xbe,
  0x60, 0x25, 0xcc, 0xbe, 0xb4, 0xc4, 0xf3, 0xbe, 0x44, 0x4a, 0x44, 0x3e,
  0xc6, 0x89, 0x2f, 0xbe, 0x29, 0x76, 0xde, 0xbb, 0x7d, 0x9c, 0x02, 0x3e,
  0xd2, 0x3e, 0x97, 0xbe, 0xfc, 0xa0, 0x2a, 0xbe, 0xcb, 0x56, 0xc3, 0xbe,
  0x2f, 0xb5, 0x10, 0x3f, 0xfd, 0x94, 0xb0, 0xbd, 0x32, 0xb4, 0xd8, 0xbe,
  0x43, 0x1f, 0x54, 0xbe, 0xa2, 0xab, 0x05, 0xbf, 0xbe, 0x65, 0x2c, 0x3d,
  0x6c, 0x52, 0x9a, 0xbe, 0x5d, 0xa2, 0x8e, 0xbe, 0x72, 0xb2, 0x72, 0xbd,
  0x41, 0x5b, 0x43, 0xbe, 0x38, 0xbd, 0x47, 0x3d, 0x27, 0x42, 0xb1, 0xbe,
  0x84, 0x18, 0x48, 0x3c, 0x73, 0x6c, 0xcb, 0xbc, 0xc1, 0xba, 0x93, 0xbe,
  0x8b, 0xa0, 0x86, 0x3e, 0x2f, 0xd3, 0xd0, 0x3c, 0xff, 0xec, 0x8d, 0xbd,
  0xb9, 0x37, 0x89, 0x3e, 0x56, 0x95, 0x37, 0x3e, 0x90, 0xfc, 0xe1, 0x3d,
  0x2e, 0x03, 0x1f, 0x3e, 0xe2, 0x7c, 0xa8, 0xbd, 0x81, 0xd4, 0xa0, 0xbe,
  0x96, 0x56, 0xac, 0x3e, 0xe7, 0x9c, 0x85, 0xbc, 0x6d, 0x7f, 0x87, 0xbe,
  0x0f, 0x68, 0xad, 0x3c, 0xe3, 0xc9, 0x04, 0x3f, 0x34, 0x7c, 0x6c, 0x3d,
  0xde, 0x52, 0xb1, 0xbe, 0x8c, 0x66, 0x23, 0x3e, 0xac, 0x35, 0xac, 0x3d,
  0x58, 0x2e, 0x58, 0xbd, 0x18, 0xbe, 0xe4, 0x3d, 0xcf, 0xbc, 0xe6, 0xbd,
  0x35, 0x99, 0xb0, 0xbe, 0x99, 0xc6, 0x98, 0x3d, 0x7e, 0x0f, 0xf8, 0x3d,
  0xaa, 0xb4, 0xe9, 0xbc, 0x86, 0x16, 0x84, 0x3e, 0xe8, 0xea, 0x9a, 0xbd,
  0x83, 0xc2, 0x4a, 0xbe, 0xcf, 0xb4, 0x8a, 0x3d, 0x93, 0x48, 0x73, 0x3e,
  0xfe, 0x9d, 0xd9, 0xbd, 0xce, 0x9f, 0x10, 0x3e, 0x22, 0x02, 0xdc, 0x3d,
  0x6d, 0x96, 0xe5, 0x3d, 0xb0, 0xa0, 0xb8, 0x3d, 0xb8, 0x65, 0xa5, 0x3e,
  0x0f, 0x6d, 0x12, 0xbe, 0x92, 0x6a, 0xf4, 0xbc, 0x2a, 0xcf, 0x39, 0xbe,
  0x8a, 0x55, 0x83, 0x3d, 0x81, 0x11, 0x11, 0xbc, 0x19, 0xa7, 0x05, 0x3d,
  0xab, 0xb9, 0x6d, 0xbe, 0x4e, 0x4a, 0x25, 0xbe, 0xe4, 0x9d, 0x87, 0x3d,
  0x1a, 0xeb, 0x09, 0x3e, 0xad, 0xaf, 0xef, 0x3d, 0x6f, 0xd9, 0x0b, 0x3e,
  0xdb, 0x68, 0x92, 0xbd, 0x67, 0xd6, 0x07, 0xbe, 0x7a, 0x3e, 0x7a, 0x3e,
  0x9e, 0x69, 0x42, 0xbd, 0x35, 0x50, 0xa7, 0x3d, 0x43, 0x82, 0x0d, 0xbd,
  0x13, 0x42, 0xe3, 0xbd, 0x65, 0x3e, 0x25, 0x3e, 0xad, 0x17, 0x12, 0xbe,
  0x08, 0xa2, 0x23, 0x3e, 0x45, 0x3d, 0xf7, 0xbd, 0x57, 0x92, 0xa3, 0x3d,
  0xe8, 0xe1, 0xfc, 0x3b, 0xe7, 0x25, 0x85, 0x3e, 0x43, 0x5a, 0x07, 0x3f,
  0x1b, 0xca, 0x3b, 0x3e, 0xcb, 0xca, 0x68, 0x3e, 0x96, 0x1f, 0x37, 0xbe,
  0x7e, 0xce, 0x07, 0xbd, 0xc5, 0x49, 0xee, 0x3e, 0xaa, 0x40, 0xed, 0x3e,
  0x3e, 0x63, 0x35, 0x3f, 0x85, 0x99, 0x37, 0x3e, 0x00, 0x40, 0xe4, 0x3e,
  0x75, 0x12, 0x0f, 0xbe, 0xe8, 0x45, 0x75, 0x3c, 0x22, 0x0e, 0xb8, 0x3e,
  0x5c, 0x18, 0x24, 0xbe, 0x8b, 0x55, 0xc4, 0x3e, 0x3c, 0x93, 0xfc, 0x3d,
  0xaf, 0xd2, 0xf8, 0x3e, 0xe1, 0xeb, 0x73, 0x3e, 0xda, 0x91, 0x62, 0x3e,
  0x96, 0xa4, 0xb9, 0x3d, 0x33, 0x85, 0x54, 0xbc, 0x61, 0x54, 0xd0, 0x3e,
  0x57, 0xd1, 0x8f, 0x3e, 0x6f, 0x5f, 0x45, 0x3f, 0x78, 0xbe, 0xd6, 0x3b,
  0x52, 0x80, 0x11, 0x3f, 0x7a, 0x1a, 0x10, 0xbe, 0x9b, 0x35, 0xa0, 0x3c,
  0x85, 0xa8, 0xbc, 0x3d, 0xf5, 0x7e, 0x1c, 0x3e, 0x83, 0x22, 0x64, 0x3f,
  0x75, 0xc9, 0xc7, 0x3d, 0x30, 0xe5, 0xfb, 0x3d, 0x05, 0xa4, 0x9c, 0x3e,
  0x4e, 0x1e, 0xef, 0x3d, 0x06, 0xa5, 0x8f, 0x3c, 0x0d, 0x54, 0xe7, 0xbd,
  0x64, 0x80, 0x2f, 0x3f, 0x43, 0x8a, 0x91, 0xbd, 0x25, 0xb9, 0x97, 0x3e,
  0xee, 0xbf, 0xcf, 0x3d, 0x07, 0x1b, 0x41, 0x3f, 0x9b, 0x2c, 0x3d, 0xbe,
  0x67, 0x66, 0xb3, 0x3e, 0xd7, 0x36, 0xc5, 0x3e, 0x60, 0x30, 0xa5, 0xbd,
  0x65, 0x05, 0x34, 0x3f, 0x3d, 0xe3, 0x92, 0x3d, 0x79, 0x04, 0xe3, 0x3e,
  0x15, 0xe9, 0x07, 0x3e, 0xcd, 0xb3, 0x06, 0x3e, 0x6f, 0xc4, 0x57, 0xbe,
  0xf3, 0x75, 0x53, 0x3d, 0x01, 0xed, 0xde, 0x3e, 0xcc, 0xd1, 0x3f, 0xbd,
  0xb7, 0x5b, 0x28, 0x3f, 0xc8, 0x72, 0x5c, 0xbd, 0xdb, 0x4b, 0x57, 0x3f,
  0xfd, 0x59, 0xeb, 0xbc, 0x73, 0x50, 0x63, 0x3e, 0xd2, 0x38, 0x06, 0x3f,
  0x44, 0x8b, 0x9e, 0xbe, 0xf4, 0x75, 0x47, 0x3f, 0x18, 0x73, 0xfa, 0x3e,
  0x94, 0xc1, 0x33, 0x3d, 0x92, 0xdb, 0x68, 0x3e, 0xc5, 0xa3, 0xa4, 0x3d,
  0xb7, 0xcf, 0x9d, 0x3e, 0x52, 0xc7, 0xf4, 0xbd, 0xf4, 0x10, 0xd6, 0x3e,
  0x69, 0xba, 0xae, 0x3d, 0xce, 0x9a, 0xd6, 0x3e, 0xc0, 0x3f, 0x77, 0x3d,
  0x21, 0x42, 0x2d, 0x3f, 0xaf, 0x04, 0x4c, 0x3e, 0x5c, 0xc2, 0xd0, 0xbd,
  0x27, 0xf7, 0x5b, 0xbe, 0xe7, 0xbf, 0x66, 0xbc, 0x13, 0xaa, 0xcd, 0x3e,
  0x2c, 0xc6, 0x3c, 0x3e, 0x1d, 0xe6, 0xc9, 0x3e, 0x38, 0xa8, 0xbe, 0x3e,
  0xff, 0x5b, 0x1e, 0xbd, 0x12, 0x85, 0x5d, 0x3e, 0xa4, 0x2c, 0x47, 0xbe,
  0xfa, 0xc2, 0xe9, 0x3e, 0x3e, 0x26, 0x8e, 0x3e, 0x8f, 0x2d, 0x92, 0x3e,
  0x26, 0x68, 0x1e, 0x3e, 0xb2, 0x8a, 0x01, 0x3f, 0xa3, 0x59, 0xb7, 0xbd,
  0xfd, 0xba, 0xfb, 0xbd, 0xc9, 0x52, 0x20, 0xbc, 0x02, 0xb5, 0xb1, 0xbd,
  0x47, 0x28, 0xd4, 0x3e, 0xc9, 0x7b, 0xd2, 0x3e, 0x5a, 0x3b, 0x31, 0x3d,
  0x47, 0x9f, 0xc1, 0x3e, 0x2e, 0x28, 0x87, 0xbe, 0xe2, 0x59, 0x33, 0xbc,
  0x01, 0xb3, 0x9e, 0x3c, 0x9b, 0xc4, 0xa7, 0x3e, 0xad, 0x31, 0x14, 0x3e,
  0x07, 0xa3, 0x33, 0x3f, 0x64, 0x3b, 0xbe, 0x3d, 0x53, 0xbb, 0xdb, 0x3e,
  0xc2, 0x81, 0x8f, 0xbc, 0xf3, 0x71, 0xe5, 0x3c, 0x03, 0x42, 0xba, 0xbb,
  0x93, 0x1d, 0x10, 0xbe, 0xee, 0xbb, 0xf1, 0x3c, 0x81, 0xd4, 0x67, 0x3e,
  0x5d, 0xdc, 0x73, 0xbb, 0x86, 0xe8, 0x59, 0x3e, 0xb0, 0xd7, 0x0d, 0xbe,
  0x93, 0x75, 0xf0, 0xbe, 0x88, 0x97, 0x41, 0xbd, 0x0b, 0x2d, 0x1c, 0x3e,
  0xe9, 0x60, 0x2f, 0xbe, 0x70, 0x64, 0x22, 0x3f, 0xae, 0x49, 0x07, 0xbc,
  0x20, 0x00, 0xce, 0x3e, 0x75, 0xec, 0x98, 0xbd, 0x8d, 0xb4, 0xd6, 0xbd,
  0xe4, 0xc1, 0x2b, 0xbd, 0xd6, 0xd5, 0x5b, 0x3a, 0x18, 0xdb, 0xe3, 0x3d,
  0xa6, 0x04, 0xbd, 0x3e, 0x42, 0xfb, 0xff, 0xff, 0x04, 0x00, 0x00, 0x00,
  0x40, 0x01, 0x00, 0x00, 0xa3, 0xb7, 0x13, 0x3d, 0xca, 0x28, 0x9e, 0x3d,
  0xc9, 0xae, 0xea, 0x3e, 0x80, 0x18, 0x93, 0x3d, 0xb1, 0x2a, 0x22, 0x3e,
  0xe5, 0xed, 0x10, 0x3e, 0x8e, 0xa3, 0xee, 0x3e, 0xf7, 0x31, 0x80, 0xbf,
  0xef, 0xea, 0x16, 0x3f, 0x08, 0x05, 0xfb, 0xbe, 0x83, 0xe4, 0x42, 0x3f,
  0x4c, 0x1a, 0x17, 0xbf, 0x6d, 0x08, 0xef, 0x3c, 0x66, 0x44, 0x9c, 0xbe,
  0x77, 0x5a, 0x5d, 0xbf, 0xbd, 0xe0, 0x8a, 0x3e, 0xf0, 0xc9, 0xbb, 0x3e,
  0x4c, 0x78, 0x67, 0xbe, 0x82, 0x1d, 0x1b, 0x3f, 0xb5, 0x38, 0xbb, 0x3d,
  0xd1, 0x0e, 0xb9, 0xbf, 0xb1, 0x9b, 0x68, 0xbf, 0x8b, 0x9f, 0xa5, 0xbe,
  0xf1, 0xcd, 0xb1, 0x3e, 0x8c, 0xe7, 0x68, 0xbf, 0xca, 0x14, 0xd7, 0x3e,
  0x5d, 0x1d, 0x98, 0xbf, 0xad, 0xb4, 0x0c, 0xbf, 0xb0, 0xbd, 0xbd, 0x3e,
  0x45, 0x2d, 0x57, 0xbf, 0x33, 0xb3, 0xb7, 0xbf, 0x2f, 0x1d, 0x17, 0xbf,
  0xd3, 0x7b, 0xd8, 0x3c, 0xe0, 0xbb, 0x80, 0xbc, 0x21, 0xc2, 0x68, 0xbe,
  0x02, 0x87, 0x1d, 0xbf, 0x5b, 0xf2, 0xac, 0x3e, 0x2c, 0x8c, 0x86, 0xbf,
  0x26, 0x09, 0x30, 0x3d, 0xbf, 0xe0, 0xa5, 0xbf, 0x6a, 0x7c, 0x41, 0x3f,
  0xc2, 0x4a, 0x18, 0xbf, 0x74, 0xb3, 0x7c, 0x3f, 0x66, 0x02, 0x02, 0xbe,
  0x97, 0xe5, 0x7d, 0xbf, 0x49, 0x2b, 0x65, 0x3f, 0x1d, 0xcc, 0xd1, 0x3e,
  0x7e, 0x13, 0x54, 0x3e, 0xf7, 0x2a, 0xdd, 0xbd, 0xa6, 0x59, 0x30, 0xbe,
  0xad, 0x5d, 0xf9, 0x3e, 0xaa, 0x22, 0xac, 0xbe, 0x98, 0x27, 0x9a, 0xbe,
  0xaa, 0xfd, 0x53, 0xbe, 0x00, 0x81, 0x94, 0xbe, 0x79, 0x7f, 0xef, 0x3e,
  0xdb, 0xed, 0x57, 0xbf, 0x59, 0x76, 0xf5, 0x3e, 0x91, 0xea, 0x99, 0xbe,
  0x67, 0xac, 0xc9, 0x3e, 0xe2, 0x2b, 0x25, 0xbe, 0x08, 0x77, 0xc3, 0x3e,
  0x72, 0x63, 0x14, 0x3f, 0x46, 0xd7, 0x13, 0x3f, 0xaa, 0x77, 0xd9, 0xbe,
  0xf9, 0xf7, 0xf6, 0xbe, 0x65, 0x5a, 0x8f, 0x3e, 0x40, 0xfb, 0x8c, 0xbc,
  0x23, 0x4a, 0x6e, 0xbf, 0xe3, 0x77, 0xd6, 0x3e, 0x83, 0xf1, 0xbb, 0x3e,
  0xdc, 0xda, 0xee, 0xbf, 0x62, 0x93, 0x5c, 0xbf, 0x78, 0x80, 0xfa, 0xbf,
  0x40, 0x46, 0x7a, 0xbf, 0x8e, 0x30, 0x5e, 0xbf, 0xcf, 0x73, 0x8a, 0xbf,
  0x0e, 0x46, 0x50, 0xbf, 0x0c, 0xcb, 0x4a, 0xbf, 0xc7, 0xda, 0x22, 0xbf,
  0x8e, 0xfc, 0xff, 0xff, 0x04, 0x00, 0x00, 0x00, 0x80, 0x01, 0x00, 0x00,
  0xd7, 0xbd, 0xb0, 0x3e, 0xe6, 0x41, 0x04, 0xbc, 0xcd, 0x0d, 0xd2, 0xbe,
  0x66, 0xf0, 0xe5, 0xbc, 0xa9, 0x3d, 0x50, 0xbd, 0x90, 0x21, 0x13, 0xbe,
  0x80, 0x90, 0xaa, 0x3e, 0x64, 0x76, 0xcf, 0xbe, 0xed, 0x3e, 0x5f, 0xbe,
  0x2e, 0x6d, 0x86, 0x3e, 0xce, 0x25, 0x28, 0xbe, 0x84, 0x97, 0x14, 0x3e,
  0x92, 0x1e, 0xc4, 0xbe, 0xd7, 0x45, 0xf0, 0x3d, 0x50, 0xf1, 0xa9, 0xbe,
  0xb5, 0x3d, 0x32, 0x3e, 0x7f, 0x6d, 0xbd, 0xbe, 0x63, 0xbc, 0xc4, 0x3d,
  0x5f, 0x4c, 0xe8, 0x3e, 0x4a, 0xef, 0x3c, 0x3e, 0xee, 0x60, 0xea, 0x3d,
  0x26, 0x96, 0xaa, 0xbe, 0x5d, 0x7e, 0x97, 0x3e, 0x64, 0xc7, 0xa7, 0xbe,
  0x19, 0x1e, 0x05, 0xbe, 0x29, 0xf2, 0x1c, 0xbe, 0x15, 0x81, 0x1b, 0x3e,
  0x2f, 0xa5, 0x5b, 0xbd, 0x7f, 0x06, 0xc3, 0xbc, 0xd4, 0x5e, 0x03, 0x3e,
  0x55, 0x9d, 0xa2, 0xbd, 0x56, 0xec, 0x9d, 0xbe, 0x10, 0xf7, 0xd3, 0x3e,
  0x0b, 0x35, 0xd3, 0xbd, 0x78, 0xb8, 0x6d, 0xbe, 0x15, 0x12, 0x59, 0x3e,
  0x68, 0xaf, 0xc2, 0x3e, 0x1a, 0x5b, 0xb4, 0xbe, 0x38, 0xb2, 0x8e, 0xbd,
  0x25, 0xd0, 0xa8, 0xbe, 0x31, 0x7c, 0x18, 0x3e, 0xec, 0x95, 0xa2, 0x3e,
  0x58, 0xd1, 0xa0, 0x3e, 0x30, 0x65, 0xf7, 0x3d, 0x7c, 0x14, 0xed, 0x3c,
  0xbb, 0xe1, 0x1b, 0x3e, 0x1b, 0x26, 0xff, 0xbe, 0xf5, 0x07, 0xdd, 0xbe,
  0xad, 0xc2, 0xcf, 0xbd, 0x76, 0xff, 0xfd, 0xbc, 0x97, 0x92, 0x6c, 0x3e,
  0xdd, 0x91, 0x0b, 0x3e, 0x64, 0x7c, 0x10, 0x3e, 0x4d, 0xc6, 0xbe, 0xbe,
  0x6d, 0x4b, 0xb1, 0x3e, 0x39, 0x65, 0x65, 0xbe, 0x1a, 0x6b, 0xe1, 0xbe,
  0x2d, 0x4a, 0x18, 0xbe, 0xa0, 0xb9, 0xbb, 0x3d, 0xc2, 0x71, 0x3a, 0x3e,
  0xfb, 0x76, 0xbd, 0xbe, 0xf7, 0x20, 0x7b, 0x3e, 0x88, 0x42, 0xc3, 0xbe,
  0x69, 0x2d, 0x76, 0xbe, 0x7d, 0xbf, 0x6b, 0x3d, 0x4e, 0x3c, 0x92, 0x3e,
  0xaa, 0x51, 0x9c, 0xbe, 0x2c, 0xe1, 0xa8, 0x3d, 0xa8, 0x02, 0xb5, 0xbe,
  0x31, 0xbc, 0xdf, 0x3d, 0x3e, 0x14, 0x68, 0x3c, 0x36, 0xab, 0x24, 0x3e,
  0x8d, 0x64, 0xc7, 0xbd, 0x9b, 0xae, 0xb2, 0xbe, 0xc5, 0x6c, 0x71, 0x3e,
  0xef, 0x01, 0x51, 0xbd, 0x81, 0xe0, 0xba, 0xbe, 0xba, 0xe9, 0xda, 0xbe,
  0x12, 0x63, 0x55, 0x3e, 0x16, 0xb5, 0x4e, 0x3c, 0x4d, 0xbe, 0x30, 0x3e,
  0x74, 0xa3, 0xc0, 0xbd, 0xa1, 0xf9, 0x6c, 0xbe, 0x31, 0x15, 0x68, 0xbb,
  0x4c, 0x60, 0x8c, 0x3e, 0x19, 0x38, 0xad, 0xbe, 0x6b, 0x7d, 0x35, 0xbe,
  0xe5, 0x4c, 0xdd, 0x3e, 0x00, 0x72, 0x46, 0xbe, 0x0b, 0xc5, 0x8f, 0xbe,
  0x7e, 0x7b, 0xaa, 0xbd, 0x4d, 0x7e, 0xd4, 0xbc, 0xf4, 0x00, 0x18, 0x3d,
  0xdb, 0x1a, 0x46, 0x3d, 0x02, 0xb1, 0x4a, 0x3e, 0x29, 0xe9, 0xfe, 0x39,
  0x1a, 0xfe, 0xff, 0xff, 0x04, 0x00, 0x00, 0x00, 0x0c, 0x00, 0x00, 0x00,
  0xff, 0xff, 0xff, 0xff, 0x08, 0x00, 0x00, 0x00, 0x10, 0x00, 0x00, 0x00,
  0x32, 0xfe, 0xff, 0xff, 0x04, 0x00, 0x00, 0x00, 0x0c, 0x00, 0x00, 0x00,
  0xff, 0xff, 0xff, 0xff, 0x04, 0x00, 0x00, 0x00, 0x10, 0x00, 0x00, 0x00,
  0x4a, 0xfe, 0xff, 0xff, 0x04, 0x00, 0x00, 0x00, 0x40, 0x00, 0x00, 0x00,
  0xb6, 0x2a, 0xd0, 0xbd, 0xd1, 0x50, 0xab, 0xbe, 0x76, 0x32, 0xa5, 0xbf,
  0x2f, 0x01, 0x9f, 0x3e, 0x12, 0x59, 0xe8, 0xbe, 0xd8, 0xd7, 0x3b, 0xbe,
  0xac, 0x98, 0x11, 0xbd, 0x5c, 0x1a, 0x0e, 0xbc, 0x47, 0xe8, 0x9b, 0xbe,
  0xa9, 0xda, 0x8c, 0xbe, 0x17, 0x79, 0x0d, 0x40, 0x9c, 0xa6, 0x68, 0xc0,
  0x96, 0xdb, 0xa4, 0xbd, 0xdd, 0xed, 0x27, 0x40, 0xc1, 0xd4, 0x1c, 0xbe,
  0x21, 0x3b, 0x6e, 0xc0, 0xf8, 0xf1, 0xff, 0xff, 0xfc, 0xf1, 0xff, 0xff,
  0x0f, 0x00, 0x00, 0x00, 0x4d, 0x4c, 0x49, 0x52, 0x20, 0x43, 0x6f, 0x6e,
  0x76, 0x65, 0x72, 0x74, 0x65, 0x64, 0x2e, 0x00, 0x01, 0x00, 0x00, 0x00,
  0x14, 0x00, 0x00, 0x00, 0x00, 0x00, 0x0e, 0x00, 0x18, 0x00, 0x14, 0x00,
  0x10, 0x00, 0x0c, 0x00, 0x08, 0x00, 0x04, 0x00, 0x0e, 0x00, 0x00, 0x00,
  0x14, 0x00, 0x00, 0x00, 0x1c, 0x00, 0x00, 0x00, 0x4c, 0x03, 0x00, 0x00,
  0x50, 0x03, 0x00, 0x00, 0x54, 0x03, 0x00, 0x00, 0x04, 0x00, 0x00, 0x00,
  0x6d, 0x61, 0x69, 0x6e, 0x00, 0x00, 0x00, 0x00, 0x0d, 0x00, 0x00, 0x00,
  0x04, 0x03, 0x00, 0x00, 0xa0, 0x02, 0x00, 0x00, 0x68, 0x02, 0x00, 0x00,
  0x2c, 0x02, 0x00, 0x00, 0xd8, 0x01, 0x00, 0x00, 0xa0, 0x01, 0x00, 0x00,
  0x64, 0x01, 0x00, 0x00, 0x14, 0x01, 0x00, 0x00, 0xd4, 0x00, 0x00, 0x00,
  0xac, 0x00, 0x00, 0x00, 0x70, 0x00, 0x00, 0x00, 0x38, 0x00, 0x00, 0x00,
  0x04, 0x00, 0x00, 0x00, 0x9e, 0xfd, 0xff, 0xff, 0x14, 0x00, 0x00, 0x00,
  0x00, 0x00, 0x00, 0x09, 0x14, 0x00, 0x00, 0x00, 0x18, 0x00, 0x00, 0x00,
  0x08, 0x00, 0x00, 0x00, 0x3e, 0xff, 0xff, 0xff, 0x00, 0x00, 0x80, 0x3f,
  0x01, 0x00, 0x00, 0x00, 0x1a, 0x00, 0x00, 0x00, 0x01, 0x00, 0x00, 0x00,
  0x19, 0x00, 0x00, 0x00, 0xce, 0xfd, 0xff, 0xff, 0x14, 0x00, 0x00, 0x00,
  0x00, 0x00, 0x00, 0x08, 0x10, 0x00, 0x00, 0x00, 0x14, 0x00, 0x00, 0x00,
  0x07, 0x00, 0x00, 0x00, 0xd0, 0xf2, 0xff, 0xff, 0x01, 0x00, 0x00, 0x00,
  0x19, 0x00, 0x00, 0x00, 0x03, 0x00, 0x00, 0x00, 0x18, 0x00, 0x00, 0x00,
  0x05, 0x00, 0x00, 0x00, 0x07, 0x00, 0x00, 0x00, 0x02, 0xfe, 0xff, 0xff,
  0x14, 0x00, 0x00, 0x00, 0x00, 0x00, 0x00, 0x08, 0x14, 0x00, 0x00, 0x00,
  0x18, 0x00, 0x00, 0x00, 0x07, 0x00, 0x00, 0x00, 0x1a, 0xff, 0xff, 0xff,
  0x00, 0x00, 0x00, 0x01, 0x01, 0x00, 0x00, 0x00, 0x18, 0x00, 0x00, 0x00,
  0x03, 0x00, 0x00, 0x00, 0x17, 0x00, 0x00, 0x00, 0x06, 0x00, 0x00, 0x00,
  0x08, 0x00, 0x00, 0x00, 0x6a, 0xfe, 0xff, 0xff, 0x0c, 0x00, 0x00, 0x00,
  0x10, 0x00, 0x00, 0x00, 0x02, 0x00, 0x00, 0x00, 0x01, 0x00, 0x00, 0x00,
  0x17, 0x00, 0x00, 0x00, 0x02, 0x00, 0x00, 0x00, 0x12, 0x00, 0x00, 0x00,
  0x16, 0x00, 0x00, 0x00, 0x1a, 0xff, 0xff, 0xff, 0x1c, 0x00, 0x00, 0x00,
  0x00, 0x00, 0x00, 0x3b, 0x1c, 0x00, 0x00, 0x00, 0x20, 0x00, 0x00, 0x00,
  0x06, 0x00, 0x00, 0x00, 0x00, 0x00, 0x06, 0x00, 0x08, 0x00, 0x04, 0x00,
  0x06, 0x00, 0x00, 0x00, 0x02, 0x00, 0x00, 0x00, 0x01, 0x00, 0x00, 0x00,
  0x16, 0x00, 0x00, 0x00, 0x02, 0x00, 0x00, 0x00, 0x15, 0x00, 0x00, 0x00,
  0x0c, 0x00, 0x00, 0x00, 0x56, 0xff, 0xff, 0xff, 0x24, 0x00, 0x00, 0x00,
  0x00, 0x00, 0x00, 0x20, 0x24, 0x00, 0x00, 0x00, 0x28, 0x00, 0x00, 0x00,
  0x05, 0x00, 0x00, 0x00, 0x00, 0x00, 0x0e, 0x00, 0x08, 0x00, 0x00, 0x00,
  0x00, 0x00, 0x00, 0x00, 0x00, 0x00, 0x04, 0x00, 0x0e, 0x00, 0x00, 0x00,
  0x01, 0x00, 0x00, 0x00, 0x01, 0x00, 0x00, 0x00, 0x15, 0x00, 0x00, 0x00,
  0x04, 0x00, 0x00, 0x00, 0x14, 0x00, 0x00, 0x00, 0x0b, 0x00, 0x00, 0x00,
  0x0a, 0x00, 0x00, 0x00, 0x0a, 0x00, 0x00, 0x00, 0xa2, 0xff, 0xff, 0xff,
  0x1c, 0x00, 0x00, 0x00, 0x00, 0x00, 0x00, 0x37, 0x1c, 0x00, 0x00, 0x00,
  0x20, 0x00, 0x00, 0x00, 0x04, 0x00, 0x00, 0x00, 0x00, 0x00, 0x06, 0x00,
  0x08, 0x00, 0x07, 0x00, 0x06, 0x00, 0x00, 0x00, 0x00, 0x00, 0x00, 0x02,
  0x01, 0x00, 0x00, 0x00, 0x14, 0x00, 0x00, 0x00, 0x01, 0x00, 0x00, 0x00,
  0x13, 0x00, 0x00, 0x00, 0x4e, 0xff, 0xff, 0xff, 0x0c, 0x00, 0x00, 0x00,
  0x10, 0x00, 0x00, 0x00, 0x02, 0x00, 0x00, 0x00, 0x01, 0x00, 0x00, 0x00,
  0x13, 0x00, 0x00, 0x00, 0x02, 0x00, 0x00, 0x00, 0x12, 0x00, 0x00, 0x00,
  0x02, 0x00, 0x00, 0x00, 0x00, 0x00, 0x0e, 0x00, 0x1a, 0x00, 0x14, 0x00,
  0x10, 0x00, 0x0c, 0x00, 0x0b, 0x00, 0x04, 0x00, 0x0e, 0x00, 0x00, 0x00,
  0x24, 0x00, 0x00, 0x00, 0x00, 0x00, 0x00, 0x05, 0x34, 0x00, 0x00, 0x00,
  0x38, 0x00, 0x00, 0x00, 0x03, 0x00, 0x00, 0x00, 0x00, 0x00, 0x0e, 0x00,
  0x18, 0x00, 0x17, 0x00, 0x10, 0x00, 0x0c, 0x00, 0x08, 0x00, 0x04, 0x00,
  0x0e, 0x00, 0x00, 0x00, 0x01, 0x00, 0x00, 0x00, 0x02, 0x00, 0x00, 0x00,
  0x01, 0x00, 0x00, 0x00, 0x02, 0x00, 0x00, 0x00, 0x00, 0x00, 0x00, 0x01,
  0x01, 0x00, 0x00, 0x00, 0x12, 0x00, 0x00, 0x00, 0x01, 0x00, 0x00, 0x00,
  0x11, 0x00, 0x00, 0x00, 0x42, 0xff, 0xff, 0xff, 0x10, 0x00, 0x00, 0x00,
  0x00, 0x00, 0x00, 0x34, 0x0c, 0x00, 0x00, 0x00, 0x10, 0x00, 0x00, 0x00,
  0xa0, 0xf4, 0xff, 0xff, 0x01, 0x00, 0x00, 0x00, 0x11, 0x00, 0x00, 0x00,
  0x02, 0x00, 0x00, 0x00, 0x10, 0x00, 0x00, 0x00, 0x09, 0x00, 0x00, 0x00,
  0x00, 0x00, 0x0a, 0x00, 0x10, 0x00, 0x0c, 0x00, 0x08, 0x00, 0x04, 0x00,
  0x0a, 0x00, 0x00, 0x00, 0x0c, 0x00, 0x00, 0x00, 0x10, 0x00, 0x00, 0x00,
  0x02, 0x00, 0x00, 0x00, 0x01, 0x00, 0x00, 0x00, 0x10, 0x00, 0x00, 0x00,
  0x02, 0x00, 0x00, 0x00, 0x0f, 0x00, 0x00, 0x00, 0x03, 0x00, 0x00, 0x00,
  0x00, 0x00, 0x0e, 0x00, 0x18, 0x00, 0x14, 0x00, 0x10, 0x00, 0x0c, 0x00,
  0x0b, 0x00, 0x04, 0x00, 0x0e, 0x00, 0x00, 0x00, 0x20, 0x00, 0x00, 0x00,
  0x00, 0x00, 0x00, 0x01, 0x2c, 0x00, 0x00, 0x00, 0x30, 0x00, 0x00, 0x00,
  0x01, 0x00, 0x00, 0x00, 0x0c, 0x00, 0x14, 0x00, 0x13, 0x00, 0x0c, 0x00,
  0x08, 0x00, 0x07, 0x00, 0x0c, 0x00, 0x00, 0x00, 0x00, 0x00, 0x00, 0x01,
  0x01, 0x00, 0x00, 0x00, 0x01, 0x00, 0x00, 0x00, 0x00, 0x00, 0x00, 0x01,
  0x01, 0x00, 0x00, 0x00, 0x0f, 0x00, 0x00, 0x00, 0x03, 0x00, 0x00, 0x00,
  0x0e, 0x00, 0x00, 0x00, 0x04, 0x00, 0x00, 0x00, 0x01, 0x00, 0x00, 0x00,
  0x00, 0x00, 0x0e, 0x00, 0x14, 0x00, 0x00, 0x00, 0x10, 0x00, 0x0c, 0x00,
  0x0b, 0x00, 0x04, 0x00, 0x0e, 0x00, 0x00, 0x00, 0x10, 0x00, 0x00, 0x00,
  0x00, 0x00, 0x00, 0x34, 0x0c, 0x00, 0x00, 0x00, 0x10, 0x00, 0x00, 0x00,
  0x6c, 0xf5, 0xff, 0xff, 0x01, 0x00, 0x00, 0x00, 0x0e, 0x00, 0x00, 0x00,
  0x02, 0x00, 0x00, 0x00, 0x00, 0x00, 0x00, 0x00, 0x0d, 0x00, 0x00, 0x00,
  0x01, 0x00, 0x00, 0x00, 0x1a, 0x00, 0x00, 0x00, 0x01, 0x00, 0x00, 0x00,
  0x00, 0x00, 0x00, 0x00, 0x1b, 0x00, 0x00, 0x00, 0x3c, 0x0a, 0x00, 0x00,
  0xe8, 0x09, 0x00, 0x00, 0x90, 0x09, 0x00, 0x00, 0x38, 0x09, 0x00, 0x00,
  0xf0, 0x08, 0x00, 0x00, 0xb0, 0x08, 0x00, 0x00, 0x70, 0x08, 0x00, 0x00,
  0x34, 0x08, 0x00, 0x00, 0xf8, 0x07, 0x00, 0x00, 0xbc, 0x07, 0x00, 0x00,
  0x7c, 0x07, 0x00, 0x00, 0x38, 0x07, 0x00, 0x00, 0xf8, 0x06, 0x00, 0x00,
  0x94, 0x06, 0x00, 0x00, 0x10, 0x06, 0x00, 0x00, 0x28, 0x05, 0x00, 0x00,
  0x70, 0x04, 0x00, 0x00, 0xe8, 0x03, 0x00, 0x00, 0x6c, 0x03, 0x00, 0x00,
  0xf0, 0x02, 0x00, 0x00, 0x9c, 0x02, 0x00, 0x00, 0x44, 0x02, 0x00, 0x00,
  0xe8, 0x01, 0x00, 0x00, 0x84, 0x01, 0x00, 0x00, 0xe4, 0x00, 0x00, 0x00,
  0x60, 0x00, 0x00, 0x00, 0x04, 0x00, 0x00, 0x00, 0x46, 0xf6, 0xff, 0xff,
  0x00, 0x00, 0x00, 0x01, 0x14, 0x00, 0x00, 0x00, 0x1c, 0x00, 0x00, 0x00,
  0x1c, 0x00, 0x00, 0x00, 0x1b, 0x00, 0x00, 0x00, 0x34, 0x00, 0x00, 0x00,
  0x02, 0x00, 0x00, 0x00, 0xff, 0xff, 0xff, 0xff, 0x05, 0x00, 0x00, 0x00,
  0x2c, 0xf6, 0xff, 0xff, 0x1b, 0x00, 0x00, 0x00, 0x53, 0x74, 0x61, 0x74,
  0x65, 0x66, 0x75, 0x6c, 0x50, 0x61, 0x72, 0x74, 0x69, 0x74, 0x69, 0x6f,
  0x6e, 0x65, 0x64, 0x43, 0x61, 0x6c, 0x6c, 0x5f, 0x31, 0x3a, 0x30, 0x00,
  0x02, 0x00, 0x00, 0x00, 0x01, 0x00, 0x00, 0x00, 0x05, 0x00, 0x00, 0x00,
  0x9e, 0xf6, 0xff, 0xff, 0x00, 0x00, 0x00, 0x01, 0x14, 0x00, 0x00, 0x00,
  0x1c, 0x00, 0x00, 0x00, 0x1c, 0x00, 0x00, 0x00, 0x1a, 0x00, 0x00, 0x00,
  0x5c, 0x00, 0x00, 0x00, 0x02, 0x00, 0x00, 0x00, 0xff, 0xff, 0xff, 0xff,
  0x05, 0x00, 0x00, 0x00, 0x84, 0xf6, 0xff, 0xff, 0x40, 0x00, 0x00, 0x00,
  0x73, 0x65, 0x71, 0x75, 0x65, 0x6e, 0x74, 0x69, 0x61, 0x6c, 0x5f, 0x34,
  0x5f, 0x31, 0x2f, 0x64, 0x65, 0x6e, 0x73, 0x65, 0x5f, 0x39, 0x5f, 0x31,
  0x2f, 0x4d, 0x61, 0x74, 0x4d, 0x75, 0x6c, 0x3b, 0x73, 0x65, 0x71, 0x75,
  0x65, 0x6e, 0x74, 0x69, 0x61, 0x6c, 0x5f, 0x34, 0x5f, 0x31, 0x2f, 0x64,
  0x65, 0x6e, 0x73, 0x65, 0x5f, 0x39, 0x5f, 0x31, 0x2f, 0x42, 0x69, 0x61,
  0x73, 0x41, 0x64, 0x64, 0x00, 0x00, 0x00, 0x00, 0x02, 0x00, 0x00, 0x00,
  0x01, 0x00, 0x00, 0x00, 0x05, 0x00, 0x00, 0x00, 0x1e, 0xf7, 0xff, 0xff,
  0x00, 0x00, 0x00, 0x01, 0x14, 0x00, 0x00, 0x00, 0x1c, 0x00, 0x00, 0x00,
  0x1c, 0x00, 0x00, 0x00, 0x19, 0x00, 0x00, 0x00, 0x78, 0x00, 0x00, 0x00,
  0x02, 0x00, 0x00, 0x00, 0xff, 0xff, 0xff, 0xff, 0x10, 0x00, 0x00, 0x00,
  0x04, 0xf7, 0xff, 0xff, 0x5e, 0x00, 0x00, 0x00, 0x73, 0x65, 0x71, 0x75,
  0x65, 0x6e, 0x74, 0x69, 0x61, 0x6c, 0x5f, 0x34, 0x5f, 0x31, 0x2f, 0x64,
  0x65, 0x6e, 0x73, 0x65, 0x5f, 0x38, 0x5f, 0x31, 0x2f, 0x4d, 0x61, 0x74,
  0x4d, 0x75, 0x6c, 0x3b, 0x73, 0x65, 0x71, 0x75, 0x65, 0x6e, 0x74, 0x69,
  0x61, 0x6c, 0x5f, 0x34, 0x5f, 0x31, 0x2f, 0x64, 0x65, 0x6e, 0x73, 0x65,
  0x5f, 0x38, 0x5f, 0x31, 0x2f, 0x52, 0x65, 0x6c, 0x75, 0x3b, 0x73, 0x65,
  0x71, 0x75, 0x65, 0x6e, 0x74, 0x69, 0x61, 0x6c, 0x5f, 0x34, 0x5f, 0x31,
  0x2f, 0x64, 0x65, 0x6e, 0x73, 0x65, 0x5f, 0x38, 0x5f, 0x31, 0x2f, 0x42,
  0x69, 0x61, 0x73, 0x41, 0x64, 0x64, 0x00, 0x00, 0x02, 0x00, 0x00, 0x00,
  0x01, 0x00, 0x00, 0x00, 0x10, 0x00, 0x00, 0x00, 0xba, 0xf7, 0xff, 0xff,
  0x00, 0x00, 0x00, 0x01, 0x14, 0x00, 0x00, 0x00, 0x1c, 0x00, 0x00, 0x00,
  0x1c, 0x00, 0x00, 0x00, 0x18, 0x00, 0x00, 0x00, 0x3c, 0x00, 0x00, 0x00,
  0x02, 0x00, 0x00, 0x00, 0xff, 0xff, 0xff, 0xff, 0x40, 0x00, 0x00, 0x00,
  0xa0, 0xf7, 0xff, 0xff, 0x22, 0x00, 0x00, 0x00, 0x73, 0x65, 0x71, 0x75,
  0x65, 0x6e, 0x74, 0x69, 0x61, 0x6c, 0x5f, 0x34, 0x5f, 0x31, 0x2f, 0x66,
  0x6c, 0x61, 0x74, 0x74, 0x65, 0x6e, 0x5f, 0x34, 0x5f, 0x31, 0x2f, 0x52,
  0x65, 0x73, 0x68, 0x61, 0x70, 0x65, 0x00, 0x00, 0x02, 0x00, 0x00, 0x00,
  0x01, 0x00, 0x00, 0x00, 0x40, 0x00, 0x00, 0x00, 0xbe, 0xf8, 0xff, 0xff,
  0x00, 0x00, 0x00, 0x01, 0x14, 0x00, 0x00, 0x00, 0x14, 0x00, 0x00, 0x00,
  0x17, 0x00, 0x00, 0x00, 0x00, 0x00, 0x00, 0x02, 0x38, 0x00, 0x00, 0x00,
  0xf4, 0xf7, 0xff, 0xff, 0x28, 0x00, 0x00, 0x00, 0x73, 0x65, 0x71, 0x75,
  0x65, 0x6e, 0x74, 0x69, 0x61, 0x6c, 0x5f, 0x34, 0x5f, 0x31, 0x2f, 0x66,
  0x6c, 0x61, 0x74, 0x74, 0x65, 0x6e, 0x5f, 0x34, 0x5f, 0x31, 0x2f, 0x52,
  0x65, 0x73, 0x68, 0x61, 0x70, 0x65, 0x2f, 0x73, 0x68, 0x61, 0x70, 0x65,
  0x00, 0x00, 0x00, 0x00, 0x01, 0x00, 0x00, 0x00, 0x02, 0x00, 0x00, 0x00,
  0x16, 0xf9, 0xff, 0xff, 0x00, 0x00, 0x00, 0x01, 0x14, 0x00, 0x00, 0x00,
  0x14, 0x00, 0x00, 0x00, 0x16, 0x00, 0x00, 0x00, 0x00, 0x00, 0x00, 0x02,
  0x38, 0x00, 0x00, 0x00, 0x4c, 0xf8, 0xff, 0xff, 0x28, 0x00, 0x00, 0x00,
  0x73, 0x65, 0x71, 0x75, 0x65, 0x6e, 0x74, 0x69, 0x61, 0x6c, 0x5f, 0x34,
  0x5f, 0x31, 0x2f, 0x66, 0x6c, 0x61, 0x74, 0x74, 0x65, 0x6e, 0x5f, 0x34,
  0x5f, 0x31, 0x2f, 0x73, 0x74, 0x72, 0x69, 0x64, 0x65, 0x64, 0x5f, 0x73,
  0x6c, 0x69, 0x63, 0x65, 0x00, 0x00, 0x00, 0x00, 0x00, 0x00, 0x00, 0x00,
  0x6a, 0xf9, 0xff, 0xff, 0x00, 0x00, 0x00, 0x01, 0x14, 0x00, 0x00, 0x00,
  0x14, 0x00, 0x00, 0x00, 0x15, 0x00, 0x00, 0x00, 0x00, 0x00, 0x00, 0x02,
  0x30, 0x00, 0x00, 0x00, 0xa0, 0xf8, 0xff, 0xff, 0x20, 0x00, 0x00, 0x00,
  0x73, 0x65, 0x71, 0x75, 0x65, 0x6e, 0x74, 0x69, 0x61, 0x6c, 0x5f, 0x34,
  0x5f, 0x31, 0x2f, 0x66, 0x6c, 0x61, 0x74, 0x74, 0x65, 0x6e, 0x5f, 0x34,
  0x5f, 0x31, 0x2f, 0x53, 0x68, 0x61, 0x70, 0x65, 0x00, 0x00, 0x00, 0x00,
  0x01, 0x00, 0x00, 0x00, 0x03, 0x00, 0x00, 0x00, 0x16, 0xf9, 0xff, 0xff,
  0x00, 0x00, 0x00, 0x01, 0x14, 0x00, 0x00, 0x00, 0x20, 0x00, 0x00, 0x00,
  0x20, 0x00, 0x00, 0x00, 0x14, 0x00, 0x00, 0x00, 0x50, 0x00, 0x00, 0x00,
  0x03, 0x00, 0x00, 0x00, 0xff, 0xff, 0xff, 0xff, 0x04, 0x00, 0x00, 0x00,
  0x10, 0x00, 0x00, 0x00, 0x00, 0xf9, 0xff, 0xff, 0x32, 0x00, 0x00, 0x00,
  0x73, 0x65, 0x71, 0x75, 0x65, 0x6e, 0x74, 0x69, 0x61, 0x6c, 0x5f, 0x34,
  0x5f, 0x31, 0x2f, 0x6d, 0x61, 0x78, 0x5f, 0x70, 0x6f, 0x6f, 0x6c, 0x69,
  0x6e, 0x67, 0x31, 0x64, 0x5f, 0x34, 0x5f, 0x31, 0x2f, 0x4d, 0x61, 0x78,
  0x50, 0x6f, 0x6f, 0x6c, 0x31, 0x64, 0x2f, 0x53, 0x71, 0x75, 0x65, 0x65,
  0x7a, 0x65, 0x00, 0x00, 0x03, 0x00, 0x00, 0x00, 0x01, 0x00, 0x00, 0x00,
  0x04, 0x00, 0x00, 0x00, 0x10, 0x00, 0x00, 0x00, 0x8e, 0xf9, 0xff, 0xff,
  0x00, 0x00, 0x00, 0x01, 0x14, 0x00, 0x00, 0x00, 0x24, 0x00, 0x00, 0x00,
  0x24, 0x00, 0x00, 0x00, 0x13, 0x00, 0x00, 0x00, 0x4c, 0x00, 0x00, 0x00,
  0x04, 0x00, 0x00, 0x00, 0xff, 0xff, 0xff, 0xff, 0x01, 0x00, 0x00, 0x00,
  0x04, 0x00, 0x00, 0x00, 0x10, 0x00, 0x00, 0x00, 0x7c, 0xf9, 0xff, 0xff,
  0x2a, 0x00, 0x00, 0x00, 0x73, 0x65, 0x71, 0x75, 0x65, 0x6e, 0x74, 0x69,
  0x61, 0x6c, 0x5f, 0x34, 0x5f, 0x31, 0x2f, 0x6d, 0x61, 0x78, 0x5f, 0x70,
  0x6f, 0x6f, 0x6c, 0x69, 0x6e, 0x67, 0x31, 0x64, 0x5f, 0x34, 0x5f, 0x31,
  0x2f, 0x4d, 0x61, 0x78, 0x50, 0x6f, 0x6f, 0x6c, 0x31, 0x64, 0x00, 0x00,
  0x04, 0x00, 0x00, 0x00, 0x01, 0x00, 0x00, 0x00, 0x01, 0x00, 0x00, 0x00,
  0x04, 0x00, 0x00, 0x00, 0x10, 0x00, 0x00, 0x00, 0x06, 0xfa, 0xff, 0xff,
  0x00, 0x00, 0x00, 0x01, 0x14, 0x00, 0x00, 0x00, 0x24, 0x00, 0x00, 0x00,
  0x24, 0x00, 0x00, 0x00, 0x12, 0x00, 0x00, 0x00, 0x58, 0x00, 0x00, 0x00,
  0x04, 0x00, 0x00, 0x00, 0xff, 0xff, 0xff, 0xff, 0x01, 0x00, 0x00, 0x00,
  0x08, 0x00, 0x00, 0x00, 0x10, 0x00, 0x00, 0x00, 0xf4, 0xf9, 0xff, 0xff,
  0x35, 0x00, 0x00, 0x00, 0x73, 0x65, 0x71, 0x75, 0x65, 0x6e, 0x74, 0x69,
  0x61, 0x6c, 0x5f, 0x34, 0x5f, 0x31, 0x2f, 0x6d, 0x61, 0x78, 0x5f, 0x70,
  0x6f, 0x6f, 0x6c, 0x69, 0x6e, 0x67, 0x31, 0x64, 0x5f, 0x34, 0x5f, 0x31,
  0x2f, 0x4d, 0x61, 0x78, 0x50, 0x6f, 0x6f, 0x6c, 0x31, 0x64, 0x2f, 0x45,
  0x78, 0x70, 0x61, 0x6e, 0x64, 0x44, 0x69, 0x6d, 0x73, 0x00, 0x00, 0x00,
  0x04, 0x00, 0x00, 0x00, 0x01, 0x00, 0x00, 0x00, 0x01, 0x00, 0x00, 0x00,
  0x08, 0x00, 0x00, 0x00, 0x10, 0x00, 0x00, 0x00, 0x8a, 0xfa, 0xff, 0xff,
  0x00, 0x00, 0x00, 0x01, 0x14, 0x00, 0x00, 0x00, 0x20, 0x00, 0x00, 0x00,
  0x20, 0x00, 0x00, 0x00, 0x11, 0x00, 0x00, 0x00, 0x8c, 0x00, 0x00, 0x00,
  0x03, 0x00, 0x00, 0x00, 0xff, 0xff, 0xff, 0xff, 0x08, 0x00, 0x00, 0x00,
  0x10, 0x00, 0x00, 0x00, 0x74, 0xfa, 0xff, 0xff, 0x6f, 0x00, 0x00, 0x00,
  0x73, 0x65, 0x71, 0x75, 0x65, 0x6e, 0x74, 0x69, 0x61, 0x6c, 0x5f, 0x34,
  0x5f, 0x31, 0x2f, 0x63, 0x6f, 0x6e, 0x76, 0x31, 0x64, 0x5f, 0x34, 0x5f,
  0x31, 0x2f, 0x52, 0x65, 0x6c, 0x75, 0x3b, 0x73, 0x65, 0x71, 0x75, 0x65,
  0x6e, 0x74, 0x69, 0x61, 0x6c, 0x5f, 0x34, 0x5f, 0x31, 0x2f, 0x63, 0x6f,
  0x6e, 0x76, 0x31, 0x64, 0x5f, 0x34, 0x5f, 0x31, 0x2f, 0x42, 0x69, 0x61,
  0x73, 0x41, 0x64, 0x64, 0x3b, 0x73, 0x65, 0x71, 0x75, 0x65, 0x6e, 0x74,
  0x69, 0x61, 0x6c, 0x5f, 0x34, 0x5f, 0x31, 0x2f, 0x63, 0x6f, 0x6e, 0x76,
  0x31, 0x64, 0x5f, 0x34, 0x5f, 0x31, 0x2f, 0x63, 0x6f, 0x6e, 0x76, 0x6f,
  0x6c, 0x75, 0x74, 0x69, 0x6f, 0x6e, 0x2f, 0x53, 0x71, 0x75, 0x65, 0x65,
  0x7a, 0x65, 0x3b, 0x00, 0x03, 0x00, 0x00, 0x00, 0x01, 0x00, 0x00, 0x00,
  0x08, 0x00, 0x00, 0x00, 0x10, 0x00, 0x00, 0x00, 0x3e, 0xfb, 0xff, 0xff,
  0x00, 0x00, 0x00, 0x01, 0x14, 0x00, 0x00, 0x00, 0x24, 0x00, 0x00, 0x00,
  0x24, 0x00, 0x00, 0x00, 0x10, 0x00, 0x00, 0x00, 0xb8, 0x00, 0x00, 0x00,
  0x04, 0x00, 0x00, 0x00, 0xff, 0xff, 0xff, 0xff, 0x01, 0x00, 0x00, 0x00,
  0x08, 0x00, 0x00, 0x00, 0x10, 0x00, 0x00, 0x00, 0x2c, 0xfb, 0xff, 0xff,
  0x95, 0x00, 0x00, 0x00, 0x73, 0x65, 0x71, 0x75, 0x65, 0x6e, 0x74, 0x69,
  0x61, 0x6c, 0x5f, 0x34, 0x5f, 0x31, 0x2f, 0x63, 0x6f, 0x6e, 0x76, 0x31,
  0x64, 0x5f, 0x34, 0x5f, 0x31, 0x2f, 0x52, 0x65, 0x6c, 0x75, 0x3b, 0x73,
  0x65, 0x71, 0x75, 0x65, 0x6e, 0x74, 0x69, 0x61, 0x6c, 0x5f, 0x34, 0x5f,
  0x31, 0x2f, 0x63, 0x6f, 0x6e, 0x76, 0x31, 0x64, 0x5f, 0x34, 0x5f, 0x31,
  0x2f, 0x42, 0x69, 0x61, 0x73, 0x41, 0x64, 0x64, 0x3b, 0x73, 0x65, 0x71,
  0x75, 0x65, 0x6e, 0x74, 0x69, 0x61, 0x6c, 0x5f, 0x34, 0x5f, 0x31, 0x2f,
  0x63, 0x6f, 0x6e, 0x76, 0x31, 0x64, 0x5f, 0x34, 0x5f, 0x31, 0x2f, 0x63,
  0x6f, 0x6e, 0x76, 0x6f, 0x6c, 0x75, 0x74, 0x69, 0x6f, 0x6e, 0x2f, 0x53,
  0x71, 0x75, 0x65, 0x65, 0x7a, 0x65, 0x3b, 0x3b, 0x73, 0x65, 0x71, 0x75,
  0x65, 0x6e, 0x74, 0x69, 0x61, 0x6c, 0x5f, 0x34, 0x5f, 0x31, 0x2f, 0x63,
  0x6f, 0x6e, 0x76, 0x31, 0x64, 0x5f, 0x34, 0x5f, 0x31, 0x2f, 0x63, 0x6f,
  0x6e, 0x76, 0x6f, 0x6c, 0x75, 0x74, 0x69, 0x6f, 0x6e, 0x00, 0x00, 0x00,
  0x04, 0x00, 0x00, 0x00, 0x01, 0x00, 0x00, 0x00, 0x01, 0x00, 0x00, 0x00,
  0x08, 0x00, 0x00, 0x00, 0x10, 0x00, 0x00, 0x00, 0x22, 0xfc, 0xff, 0xff,
  0x00, 0x00, 0x00, 0x01, 0x14, 0x00, 0x00, 0x00, 0x24, 0x00, 0x00, 0x00,
  0x24, 0x00, 0x00, 0x00, 0x0f, 0x00, 0x00, 0x00, 0x54, 0x00, 0x00, 0x00,
  0x04, 0x00, 0x00, 0x00, 0xff, 0xff, 0xff, 0xff, 0x01, 0x00, 0x00, 0x00,
  0x0a, 0x00, 0x00, 0x00, 0x02, 0x00, 0x00, 0x00, 0x10, 0xfc, 0xff, 0xff,
  0x30, 0x00, 0x00, 0x00, 0x73, 0x65, 0x71, 0x75, 0x65, 0x6e, 0x74, 0x69,
  0x61, 0x6c, 0x5f, 0x34, 0x5f, 0x31, 0x2f, 0x63, 0x6f, 0x6e, 0x76, 0x31,
  0x64, 0x5f, 0x34, 0x5f, 0x31, 0x2f, 0x63, 0x6f, 0x6e, 0x76, 0x6f, 0x6c,
  0x75, 0x74, 0x69, 0x6f, 0x6e, 0x2f, 0x45, 0x78, 0x70, 0x61, 0x6e, 0x64,
  0x44, 0x69, 0x6d, 0x73, 0x00, 0x00, 0x00, 0x00, 0x04, 0x00, 0x00, 0x00,
  0x01, 0x00, 0x00, 0x00, 0x01, 0x00, 0x00, 0x00, 0x0a, 0x00, 0x00, 0x00,
  0x02, 0x00, 0x00, 0x00, 0x46, 0xfd, 0xff, 0xff, 0x00, 0x00, 0x00, 0x01,
  0x14, 0x00, 0x00, 0x00, 0x14, 0x00, 0x00, 0x00, 0x0e, 0x00, 0x00, 0x00,
  0x00, 0x00, 0x00, 0x02, 0x44, 0x00, 0x00, 0x00, 0x7c, 0xfc, 0xff, 0xff,
  0x34, 0x00, 0x00, 0x00, 0x73, 0x65, 0x71, 0x75, 0x65, 0x6e, 0x74, 0x69,
  0x61, 0x6c, 0x5f, 0x34, 0x5f, 0x31, 0x2f, 0x63, 0x6f, 0x6e, 0x76, 0x31,
  0x64, 0x5f, 0x34, 0x5f, 0x31, 0x2f, 0x63, 0x6f, 0x6e, 0x76, 0x6f, 0x6c,
  0x75, 0x74, 0x69, 0x6f, 0x6e, 0x2f, 0x45, 0x78, 0x70, 0x61, 0x6e, 0x64,
  0x44, 0x69, 0x6d, 0x73, 0x2f, 0x64, 0x69, 0x6d, 0x00, 0x00, 0x00, 0x00,
  0x00, 0x00, 0x00, 0x00, 0xa6, 0xfd, 0xff, 0xff, 0x00, 0x00, 0x00, 0x01,
  0x14, 0x00, 0x00, 0x00, 0x14, 0x00, 0x00, 0x00, 0x0d, 0x00, 0x00, 0x00,
  0x00, 0x00, 0x00, 0x02, 0x20, 0x00, 0x00, 0x00, 0xdc, 0xfc, 0xff, 0xff,
  0x10, 0x00, 0x00, 0x00, 0x61, 0x72, 0x69, 0x74, 0x68, 0x2e, 0x63, 0x6f,
  0x6e, 0x73, 0x74, 0x61, 0x6e, 0x74, 0x31, 0x31, 0x00, 0x00, 0x00, 0x00,
  0x00, 0x00, 0x00, 0x00, 0xe2, 0xfd, 0xff, 0xff, 0x00, 0x00, 0x00, 0x01,
  0x14, 0x00, 0x00, 0x00, 0x14, 0x00, 0x00, 0x00, 0x0c, 0x00, 0x00, 0x00,
  0x00, 0x00, 0x00, 0x02, 0x20, 0x00, 0x00, 0x00, 0x18, 0xfd, 0xff, 0xff,
  0x10, 0x00, 0x00, 0x00, 0x61, 0x72, 0x69, 0x74, 0x68, 0x2e, 0x63, 0x6f,
  0x6e, 0x73, 0x74, 0x61, 0x6e, 0x74, 0x31, 0x30, 0x00, 0x00, 0x00, 0x00,
  0x01, 0x00, 0x00, 0x00, 0x01, 0x00, 0x00, 0x00, 0x22, 0xfe, 0xff, 0xff,
  0x00, 0x00, 0x00, 0x01, 0x14, 0x00, 0x00, 0x00, 0x14, 0x00, 0x00, 0x00,
  0x0a, 0x00, 0x00, 0x00, 0x00, 0x00, 0x00, 0x02, 0x1c, 0x00, 0x00, 0x00,
  0x58, 0xfd, 0xff, 0xff, 0x0f, 0x00, 0x00, 0x00, 0x61, 0x72, 0x69, 0x74,
  0x68, 0x2e, 0x63, 0x6f, 0x6e, 0x73, 0x74, 0x61, 0x6e, 0x74, 0x39, 0x00,
  0x01, 0x00, 0x00, 0x00, 0x01, 0x00, 0x00, 0x00, 0x5e, 0xfe, 0xff, 0xff,
  0x00, 0x00, 0x00, 0x01, 0x14, 0x00, 0x00, 0x00, 0x14, 0x00, 0x00, 0x00,
  0x0a, 0x00, 0x00, 0x00, 0x00, 0x00, 0x00, 0x02, 0x1c, 0x00, 0x00, 0x00,
  0x94, 0xfd, 0xff, 0xff, 0x0f, 0x00, 0x00, 0x00, 0x61, 0x72, 0x69, 0x74,
  0x68, 0x2e, 0x63, 0x6f, 0x6e, 0x73, 0x74, 0x61, 0x6e, 0x74, 0x38, 0x00,
  0x00, 0x00, 0x00, 0x00, 0x42, 0xfe, 0xff, 0xff, 0x00, 0x00, 0x00, 0x01,
  0x10, 0x00, 0x00, 0x00, 0x10, 0x00, 0x00, 0x00, 0x09, 0x00, 0x00, 0x00,
  0x1c, 0x00, 0x00, 0x00, 0xc8, 0xfd, 0xff, 0xff, 0x0f, 0x00, 0x00, 0x00,
  0x61, 0x72, 0x69, 0x74, 0x68, 0x2e, 0x63, 0x6f, 0x6e, 0x73, 0x74, 0x61,
  0x6e, 0x74, 0x37, 0x00, 0x01, 0x00, 0x00, 0x00, 0x10, 0x00, 0x00, 0x00,
  0x7a, 0xfe, 0xff, 0xff, 0x00, 0x00, 0x00, 0x01, 0x10, 0x00, 0x00, 0x00,
  0x10, 0x00, 0x00, 0x00, 0x08, 0x00, 0x00, 0x00, 0x1c, 0x00, 0x00, 0x00,
  0x00, 0xfe, 0xff, 0xff, 0x0f, 0x00, 0x00, 0x00, 0x61, 0x72, 0x69, 0x74,
  0x68, 0x2e, 0x63, 0x6f, 0x6e, 0x73, 0x74, 0x61, 0x6e, 0x74, 0x36, 0x00,
  0x01, 0x00, 0x00, 0x00, 0x05, 0x00, 0x00, 0x00, 0xb2, 0xfe, 0xff, 0xff,
  0x00, 0x00, 0x00, 0x01, 0x10, 0x00, 0x00, 0x00, 0x10, 0x00, 0x00, 0x00,
  0x07, 0x00, 0x00, 0x00, 0x1c, 0x00, 0x00, 0x00, 0x38, 0xfe, 0xff, 0xff,
  0x0f, 0x00, 0x00, 0x00, 0x61, 0x72, 0x69, 0x74, 0x68, 0x2e, 0x63, 0x6f,
  0x6e, 0x73, 0x74, 0x61, 0x6e, 0x74, 0x35, 0x00, 0x02, 0x00, 0x00, 0x00,
  0x10, 0x00, 0x00, 0x00, 0x40, 0x00, 0x00, 0x00, 0xee, 0xfe, 0xff, 0xff,
  0x00, 0x00, 0x00, 0x01, 0x10, 0x00, 0x00, 0x00, 0x10, 0x00, 0x00, 0x00,
  0x06, 0x00, 0x00, 0x00, 0x1c, 0x00, 0x00, 0x00, 0x74, 0xfe, 0xff, 0xff,
  0x0f, 0x00, 0x00, 0x00, 0x61, 0x72, 0x69, 0x74, 0x68, 0x2e, 0x63, 0x6f,
  0x6e, 0x73, 0x74, 0x61, 0x6e, 0x74, 0x34, 0x00, 0x02, 0x00, 0x00, 0x00,
  0x05, 0x00, 0x00, 0x00, 0x10, 0x00, 0x00, 0x00, 0x2a, 0xff, 0xff, 0xff,
  0x00, 0x00, 0x00, 0x01, 0x10, 0x00, 0x00, 0x00, 0x10, 0x00, 0x00, 0x00,
  0x05, 0x00, 0x00, 0x00, 0x1c, 0x00, 0x00, 0x00, 0xb0, 0xfe, 0xff, 0xff,
  0x0f, 0x00, 0x00, 0x00, 0x61, 0x72, 0x69, 0x74, 0x68, 0x2e, 0x63, 0x6f,
  0x6e, 0x73, 0x74, 0x61, 0x6e, 0x74, 0x33, 0x00, 0x04, 0x00, 0x00, 0x00,
  0x10, 0x00, 0x00, 0x00, 0x01, 0x00, 0x00, 0x00, 0x03, 0x00, 0x00, 0x00,
  0x02, 0x00, 0x00, 0x00, 0xc2, 0xff, 0xff, 0xff, 0x00, 0x00, 0x00, 0x01,
  0x14, 0x00, 0x00, 0x00, 0x14, 0x00, 0x00, 0x00, 0x04, 0x00, 0x00, 0x00,
  0x00, 0x00, 0x00, 0x02, 0x1c, 0x00, 0x00, 0x00, 0xf8, 0xfe, 0xff, 0xff,
  0x0f, 0x00, 0x00, 0x00, 0x61, 0x72, 0x69, 0x74, 0x68, 0x2e, 0x63, 0x6f,
  0x6e, 0x73, 0x74, 0x61, 0x6e, 0x74, 0x32, 0x00, 0x01, 0x00, 0x00, 0x00,
  0x03, 0x00, 0x00, 0x00, 0x00, 0x00, 0x16, 0x00, 0x1c, 0x00, 0x18, 0x00,
  0x17, 0x00, 0x10, 0x00, 0x0c, 0x00, 0x08, 0x00, 0x00, 0x00, 0x00, 0x00,
  0x00, 0x00, 0x07, 0x00, 0x16, 0x00, 0x00, 0x00, 0x00, 0x00, 0x00, 0x01,
  0x14, 0x00, 0x00, 0x00, 0x14, 0x00, 0x00, 0x00, 0x03, 0x00, 0x00, 0x00,
  0x00, 0x00, 0x00, 0x02, 0x1c, 0x00, 0x00, 0x00, 0x4c, 0xff, 0xff, 0xff,
  0x0f, 0x00, 0x00, 0x00, 0x61, 0x72, 0x69, 0x74, 0x68, 0x2e, 0x63, 0x6f,
  0x6e, 0x73, 0x74, 0x61, 0x6e, 0x74, 0x31, 0x00, 0x01, 0x00, 0x00, 0x00,
  0x03, 0x00, 0x00, 0x00, 0x00, 0x00, 0x16, 0x00, 0x18, 0x00, 0x14, 0x00,
  0x00, 0x00, 0x10, 0x00, 0x0c, 0x00, 0x08, 0x00, 0x00, 0x00, 0x00, 0x00,
  0x00, 0x00, 0x07, 0x00, 0x16, 0x00, 0x00, 0x00, 0x00, 0x00, 0x00, 0x01,
  0x10, 0x00, 0x00, 0x00, 0x10, 0x00, 0x00, 0x00, 0x02, 0x00, 0x00, 0x00,
  0x1c, 0x00, 0x00, 0x00, 0x9c, 0xff, 0xff, 0xff, 0x0e, 0x00, 0x00, 0x00,
  0x61, 0x72, 0x69, 0x74, 0x68, 0x2e, 0x63, 0x6f, 0x6e, 0x73, 0x74, 0x61,
  0x6e, 0x74, 0x00, 0x00, 0x01, 0x00, 0x00, 0x00, 0x10, 0x00, 0x00, 0x00,
  0x00, 0x00, 0x16, 0x00, 0x1c, 0x00, 0x18, 0x00, 0x00, 0x00, 0x14, 0x00,
  0x10, 0x00, 0x0c, 0x00, 0x00, 0x00, 0x00, 0x00, 0x08, 0x00, 0x07, 0x00,
  0x16, 0x00, 0x00, 0x00, 0x00, 0x00, 0x00, 0x01, 0x14, 0x00, 0x00, 0x00,
  0x24, 0x00, 0x00, 0x00, 0x24, 0x00, 0x00, 0x00, 0x01, 0x00, 0x00, 0x00,
  0x44, 0x00, 0x00, 0x00, 0x03, 0x00, 0x00, 0x00, 0xff, 0xff, 0xff, 0xff,
  0x0a, 0x00, 0x00, 0x00, 0x02, 0x00, 0x00, 0x00, 0x04, 0x00, 0x04, 0x00,
  0x04, 0x00, 0x00, 0x00, 0x21, 0x00, 0x00, 0x00, 0x73, 0x65, 0x72, 0x76,
  0x69, 0x6e, 0x67, 0x5f, 0x64, 0x65, 0x66, 0x61, 0x75, 0x6c, 0x74, 0x5f,
  0x6b, 0x65, 0x72, 0x61, 0x73, 0x5f, 0x74, 0x65, 0x6e, 0x73, 0x6f, 0x72,
  0x5f, 0x32, 0x38, 0x3a, 0x30, 0x00, 0x00, 0x00, 0x03, 0x00, 0x00, 0x00,
  0x01, 0x00, 0x00, 0x00, 0x0a, 0x00, 0x00, 0x00, 0x02, 0x00, 0x00, 0x00,
  0x09, 0x00, 0x00, 0x00, 0x90, 0x00, 0x00, 0x00, 0x74, 0x00, 0x00, 0x00,
  0x64, 0x00, 0x00, 0x00, 0x54, 0x00, 0x00, 0x00, 0x44, 0x00, 0x00, 0x00,
  0x34, 0x00, 0x00, 0x00, 0x24, 0x00, 0x00, 0x00, 0x14, 0x00, 0x00, 0x00,
  0x04, 0x00, 0x00, 0x00, 0xa0, 0xff, 0xff, 0xff, 0x19, 0x00, 0x00, 0x00,
  0x00, 0x00, 0x00, 0x19, 0xac, 0xff, 0xff, 0xff, 0x09, 0x00, 0x00, 0x00,
  0x00, 0x00, 0x00, 0x09, 0xb8, 0xff, 0xff, 0xff, 0x53, 0x00, 0x00, 0x00,
  0x00, 0x00, 0x00, 0x53, 0xc4, 0xff, 0xff, 0xff, 0x2d, 0x00, 0x00, 0x00,
  0x00, 0x00, 0x00, 0x2d, 0xd0, 0xff, 0xff, 0xff, 0x4d, 0x00, 0x00, 0x00,
  0x00, 0x00, 0x00, 0x4d, 0xdc, 0xff, 0xff, 0xff, 0x11, 0x00, 0x00, 0x00,
  0x00, 0x00, 0x00, 0x11, 0xe8, 0xff, 0xff, 0xff, 0x16, 0x00, 0x00, 0x00,
  0x00, 0x00, 0x00, 0x16, 0xf4, 0xff, 0xff, 0xff, 0x03, 0x00, 0x00, 0x00,
  0x00, 0x00, 0x00, 0x03, 0x0c, 0x00, 0x0c, 0x00, 0x0b, 0x00, 0x00, 0x00,
  0x00, 0x00, 0x04, 0x00, 0x0c, 0x00, 0x00, 0x00, 0x46, 0x00, 0x00, 0x00,
  0x00, 0x00, 0x00, 0x46
};

