const unsigned char dht20_anomaly_model_tflite[] = {
  0x1c, 0x00, 0x00, 0x00, 0x54, 0x46, 0x4c, 0x33, 0x14, 0x00, 0x20, 0x00,
  0x1c, 0x00, 0x18, 0x00, 0x14, 0x00, 0x10, 0x00, 0x0c, 0x00, 0x00, 0x00,
  0x08, 0x00, 0x04, 0x00, 0x14, 0x00, 0x00, 0x00, 0x1c, 0x00, 0x00, 0x00,
  0x98, 0x00, 0x00, 0x00, 0xf0, 0x00, 0x00, 0x00, 0x08, 0x17, 0x00, 0x00,
  0x18, 0x17, 0x00, 0x00, 0xd4, 0x1f, 0x00, 0x00, 0x03, 0x00, 0x00, 0x00,
  0x01, 0x00, 0x00, 0x00, 0x10, 0x00, 0x00, 0x00, 0x00, 0x00, 0x0a, 0x00,
  0x10, 0x00, 0x0c, 0x00, 0x08, 0x00, 0x04, 0x00, 0x0a, 0x00, 0x00, 0x00,
  0x0c, 0x00, 0x00, 0x00, 0x1c, 0x00, 0x00, 0x00, 0x3c, 0x00, 0x00, 0x00,
  0x0f, 0x00, 0x00, 0x00, 0x73, 0x65, 0x72, 0x76, 0x69, 0x6e, 0x67, 0x5f,
  0x64, 0x65, 0x66, 0x61, 0x75, 0x6c, 0x74, 0x00, 0x01, 0x00, 0x00, 0x00,
  0x04, 0x00, 0x00, 0x00, 0x90, 0xff, 0xff, 0xff, 0x0d, 0x00, 0x00, 0x00,
  0x04, 0x00, 0x00, 0x00, 0x08, 0x00, 0x00, 0x00, 0x6f, 0x75, 0x74, 0x70,
  0x75, 0x74, 0x5f, 0x30, 0x00, 0x00, 0x00, 0x00, 0x01, 0x00, 0x00, 0x00,
  0x04, 0x00, 0x00, 0x00, 0xda, 0xe8, 0xff, 0xff, 0x04, 0x00, 0x00, 0x00,
  0x0f, 0x00, 0x00, 0x00, 0x6b, 0x65, 0x72, 0x61, 0x73, 0x5f, 0x74, 0x65,
  0x6e, 0x73, 0x6f, 0x72, 0x5f, 0x31, 0x39, 0x00, 0x02, 0x00, 0x00, 0x00,
  0x34, 0x00, 0x00, 0x00, 0x04, 0x00, 0x00, 0x00, 0xdc, 0xff, 0xff, 0xff,
  0x10, 0x00, 0x00, 0x00, 0x04, 0x00, 0x00, 0x00, 0x13, 0x00, 0x00, 0x00,
  0x43, 0x4f, 0x4e, 0x56, 0x45, 0x52, 0x53, 0x49, 0x4f, 0x4e, 0x5f, 0x4d,
  0x45, 0x54, 0x41, 0x44, 0x41, 0x54, 0x41, 0x00, 0x08, 0x00, 0x0c, 0x00,
  0x08, 0x00, 0x04, 0x00, 0x08, 0x00, 0x00, 0x00, 0x0f, 0x00, 0x00, 0x00,
  0x04, 0x00, 0x00, 0x00, 0x13, 0x00, 0x00, 0x00, 0x6d, 0x69, 0x6e, 0x5f,
  0x72, 0x75, 0x6e, 0x74, 0x69, 0x6d, 0x65, 0x5f, 0x76, 0x65, 0x72, 0x73,
  0x69, 0x6f, 0x6e, 0x00, 0x11, 0x00, 0x00, 0x00, 0x14, 0x16, 0x00, 0x00,
  0x0c, 0x16, 0x00, 0x00, 0xfc, 0x13, 0x00, 0x00, 0xec, 0x12, 0x00, 0x00,
  0x5c, 0x12, 0x00, 0x00, 0x0c, 0x12, 0x00, 0x00, 0xec, 0x11, 0x00, 0x00,
  0xdc, 0x10, 0x00, 0x00, 0xcc, 0x08, 0x00, 0x00, 0xbc, 0x00, 0x00, 0x00,
  0xb4, 0x00, 0x00, 0x00, 0xac, 0x00, 0x00, 0x00, 0xa4, 0x00, 0x00, 0x00,
  0x9c, 0x00, 0x00, 0x00, 0x94, 0x00, 0x00, 0x00, 0x74, 0x00, 0x00, 0x00,
  0x04, 0x00, 0x00, 0x00, 0x9a, 0xe9, 0xff, 0xff, 0x04, 0x00, 0x00, 0x00,
  0x60, 0x00, 0x00, 0x00, 0x0c, 0x00, 0x00, 0x00, 0x08, 0x00, 0x0e, 0x00,
  0x08, 0x00, 0x04, 0x00, 0x08, 0x00, 0x00, 0x00, 0x10, 0x00, 0x00, 0x00,
  0x28, 0x00, 0x00, 0x00, 0x00, 0x00, 0x06, 0x00, 0x08, 0x00, 0x04, 0x00,
  0x06, 0x00, 0x00, 0x00, 0x04, 0x00, 0x00, 0x00, 0x01, 0x00, 0x00, 0x00,
  0xea, 0x03, 0x00, 0x00, 0x0c, 0x00, 0x18, 0x00, 0x14, 0x00, 0x10, 0x00,
  0x0c, 0x00, 0x04, 0x00, 0x0c, 0x00, 0x00, 0x00, 0x21, 0x38, 0x42, 0x21,
  0xac, 0xdd, 0x8d, 0xf9, 0x02, 0x00, 0x00, 0x00, 0x02, 0x00, 0x00, 0x00,
  0x04, 0x00, 0x00, 0x00, 0x06, 0x00, 0x00, 0x00, 0x32, 0x2e, 0x31, 0x39,
  0x2e, 0x30, 0x00, 0x00, 0x06, 0xea, 0xff, 0xff, 0x04, 0x00, 0x00, 0x00,
  0x10, 0x00, 0x00, 0x00, 0x32, 0x2e, 0x31, 0x37, 0x2e, 0x30, 0x00, 0x00,
  0x00, 0x00, 0x00, 0x00, 0x00, 0x00, 0x00, 0x00, 0x1c, 0xe2, 0xff, 0xff,
  0x20, 0xe2, 0xff, 0xff, 0x24, 0xe2, 0xff, 0xff, 0x28, 0xe2, 0xff, 0xff,
  0x2c, 0xe2, 0xff, 0xff, 0x36, 0xea, 0xff, 0xff, 0x04, 0x00, 0x00, 0x00,
  0x00, 0x08, 0x00, 0x00, 0x03, 0x14, 0xed, 0xfa, 0xfa, 0x23, 0x1f, 0xe9,
  0xf1, 0xc3, 0x0d, 0x13, 0x25, 0xfb, 0xdb, 0xe2, 0xeb, 0x01, 0x1d, 0xf6,
  0x1e, 0x1e, 0xe6, 0x18, 0x2d, 0xf0, 0x2e, 0x09, 0x27, 0xe2, 0x2c, 0xe0,
  0xf5, 0x2f, 0x2c, 0x4e, 0x09, 0xe6, 0xb7, 0xee, 0x05, 0x2d, 0x18, 0xf4,
  0xe9, 0x1b, 0x01, 0xf9, 0x04, 0xfd, 0x07, 0xf8, 0x02, 0x2b, 0xe8, 0x02,
  0x7f, 0x15, 0x0c, 0x2d, 0x1e, 0xe9, 0x29, 0xf1, 0x0a, 0xec, 0xf0, 0xe7,
  0x31, 0x62, 0xc6, 0xc3, 0x48, 0x5d, 0x5b, 0x05, 0x49, 0xa2, 0x0e, 0xba,
  0xfb, 0x29, 0x50, 0x33, 0x18, 0x13, 0x89, 0x45, 0xf6, 0xb1, 0xa4, 0x62,
  0x2c, 0x11, 0xd3, 0xcf, 0xfe, 0x2f, 0x02, 0x1f, 0xd2, 0x9a, 0x02, 0x46,
  0x23, 0x0b, 0x3b, 0x38, 0x13, 0xc2, 0xdc, 0xb7, 0x38, 0x17, 0xad, 0x16,
  0xac, 0xbe, 0xf6, 0x36, 0x1b, 0x81, 0xb1, 0x9f, 0x45, 0x89, 0xdb, 0xd4,
  0xf8, 0xfd, 0x19, 0x03, 0x07, 0xfa, 0xf8, 0x1c, 0x1b, 0xd4, 0x03, 0x11,
  0xc3, 0xe6, 0x05, 0xf7, 0xef, 0x15, 0x20, 0x24, 0x08, 0x1b, 0x01, 0x01,
  0x29, 0xff, 0x0d, 0x0e, 0x28, 0xfe, 0x0e, 0x06, 0x1e, 0x27, 0xfd, 0x11,
  0xf4, 0x1a, 0xf3, 0xfc, 0xfb, 0x24, 0x0d, 0x13, 0xf5, 0x1e, 0xfa, 0xf2,
  0xfa, 0xf9, 0x1b, 0x12, 0x0b, 0x06, 0xfa, 0xec, 0x4b, 0x0b, 0xec, 0x9c,
  0x0a, 0x7f, 0xfc, 0x04, 0x92, 0x8e, 0x73, 0x9f, 0x58, 0xe1, 0xa6, 0x1a,
  0xd4, 0xb6, 0x05, 0x43, 0xd2, 0xc9, 0x97, 0x8f, 0x85, 0x48, 0x6d, 0xb2,
  0x4b, 0x81, 0xb9, 0xc8, 0x10, 0xd0, 0x53, 0xfe, 0x30, 0x69, 0xff, 0xf5,
  0xbf, 0xd5, 0x50, 0x15, 0x4b, 0x0f, 0x02, 0x1e, 0x63, 0xbe, 0x8e, 0x6f,
  0x18, 0x53, 0x89, 0xc1, 0x39, 0x3c, 0xcd, 0x8c, 0x1e, 0xd9, 0xdc, 0x0c,
  0x35, 0x23, 0x52, 0x2a, 0xe0, 0xd5, 0x3f, 0x87, 0x0d, 0xdc, 0xc1, 0x17,
  0xf2, 0x1a, 0x1b, 0x1b, 0xdf, 0x72, 0x09, 0x12, 0xf3, 0xea, 0xe6, 0x00,
  0x09, 0x0e, 0x0d, 0x14, 0x1e, 0x03, 0x1d, 0xd7, 0xd4, 0xfc, 0xd8, 0x0c,
  0xda, 0xf3, 0xe6, 0x2b, 0x18, 0xd1, 0x2b, 0xc1, 0x35, 0x23, 0x5d, 0xef,
  0xdf, 0xe0, 0x28, 0x0d, 0x0e, 0xeb, 0x44, 0x34, 0xf7, 0xf1, 0xc1, 0xf4,
  0xe2, 0x0a, 0x1a, 0x09, 0x81, 0x0d, 0x10, 0xeb, 0xd6, 0xf3, 0xdb, 0x21,
  0x1d, 0xbe, 0xc6, 0xba, 0xa8, 0x46, 0xad, 0x03, 0x71, 0x73, 0xfc, 0x11,
  0x45, 0xc1, 0xcc, 0xd4, 0xdb, 0xcc, 0xfb, 0xd3, 0x87, 0x00, 0xa7, 0x6e,
  0xc4, 0x64, 0xe9, 0xc1, 0x92, 0x37, 0x30, 0x30, 0x9f, 0xbf, 0x9c, 0x85,
  0xf8, 0xef, 0x3a, 0xcf, 0x1d, 0x2b, 0xdd, 0xe1, 0x2d, 0x78, 0x97, 0x00,
  0x3d, 0x18, 0x6e, 0x11, 0x62, 0xc8, 0xf7, 0x96, 0x81, 0x06, 0x03, 0xc6,
  0x0d, 0x16, 0x15, 0x09, 0xe9, 0xcf, 0x15, 0x06, 0xf4, 0xfc, 0x93, 0x00,
  0xeb, 0xf4, 0xf9, 0xf4, 0x17, 0x81, 0xe8, 0x0a, 0xec, 0xca, 0xfc, 0xf3,
  0xed, 0xf8, 0x1a, 0xec, 0xee, 0xf9, 0xf9, 0xfe, 0x08, 0x0c, 0xe7, 0x1a,
  0x0d, 0xf3, 0xe0, 0xf7, 0xeb, 0xee, 0xf3, 0x06, 0xe9, 0x05, 0x0b, 0xff,
  0xed, 0xe7, 0xf2, 0x16, 0x09, 0xd0, 0xf8, 0xa6, 0xe2, 0xfb, 0x1d, 0xca,
  0xdd, 0x07, 0xe2, 0x16, 0x0a, 0xe3, 0x02, 0xf0, 0xd5, 0xd3, 0x08, 0xc2,
  0x42, 0xd7, 0xc4, 0x06, 0xd6, 0xc9, 0x3f, 0x2c, 0x0e, 0xe2, 0x27, 0x19,
  0x25, 0x7f, 0xa4, 0xbd, 0xad, 0x08, 0x39, 0x44, 0x06, 0x84, 0x15, 0x98,
  0xf8, 0xed, 0x1b, 0xfd, 0x93, 0xdc, 0x50, 0xe1, 0xce, 0x14, 0x08, 0xc0,
  0x99, 0xd2, 0x31, 0x89, 0xca, 0xfd, 0x1a, 0x35, 0x32, 0xdb, 0xf2, 0xc4,
  0xe3, 0x9b, 0xab, 0x11, 0xa4, 0xd6, 0xe3, 0x9f, 0xaa, 0x8e, 0x1d, 0x2b,
  0x29, 0xfc, 0xf4, 0xd8, 0xf7, 0xde, 0x13, 0xfd, 0x01, 0xd9, 0xde, 0x0a,
  0x25, 0x55, 0x5b, 0x18, 0xf2, 0x23, 0x08, 0x1a, 0xf2, 0xef, 0x15, 0x27,
  0x22, 0x00, 0x25, 0x0b, 0x07, 0x1c, 0x34, 0xec, 0x13, 0x11, 0x24, 0x2e,
  0x22, 0x15, 0xc6, 0x3f, 0x3f, 0x06, 0xce, 0xf2, 0xe9, 0x2f, 0xd1, 0x08,
  0x1f, 0x0c, 0x15, 0x47, 0x1e, 0x1f, 0xea, 0x3b, 0x58, 0x01, 0x2b, 0x42,
  0xf6, 0x7f, 0xe7, 0xce, 0x25, 0x92, 0x81, 0x01, 0xe3, 0xf7, 0xe9, 0xb3,
  0x3a, 0x0c, 0xd7, 0xf7, 0x65, 0xbf, 0xc7, 0xc0, 0x9f, 0xdc, 0xdc, 0x92,
  0x51, 0xad, 0x28, 0x1d, 0xe8, 0xfc, 0x43, 0x9f, 0x17, 0x06, 0xa8, 0xb2,
  0x99, 0xed, 0xba, 0xbd, 0xce, 0x89, 0xcb, 0xca, 0xf8, 0xa1, 0xcd, 0x1a,
  0x3a, 0x8b, 0xe9, 0x35, 0x1c, 0xe0, 0x2e, 0x64, 0xc6, 0x16, 0xdf, 0xc5,
  0xd4, 0xc7, 0x48, 0x55, 0x1f, 0xf0, 0x3b, 0x27, 0xfd, 0xf9, 0xe0, 0x14,
  0x02, 0x08, 0x02, 0x0e, 0xe3, 0x30, 0xef, 0xf8, 0x00, 0x10, 0xe8, 0xf4,
  0x02, 0xfa, 0xdf, 0xda, 0x0a, 0x14, 0xe0, 0xd6, 0xd5, 0x00, 0xe2, 0x0b,
  0x0a, 0x19, 0xfa, 0xe3, 0x09, 0x04, 0x0d, 0xdf, 0x07, 0x11, 0x28, 0xfd,
  0xdd, 0xe6, 0x01, 0x08, 0x05, 0xdc, 0x12, 0x0b, 0x07, 0xf7, 0x0a, 0xf7,
  0x0e, 0x0c, 0x00, 0xf8, 0x9b, 0xf4, 0xef, 0xf0, 0xe0, 0x7f, 0x08, 0x11,
  0x9f, 0x4c, 0x8c, 0x11, 0xe7, 0x24, 0xaa, 0xd4, 0xb6, 0x1a, 0x37, 0xed,
  0x8d, 0xba, 0xd4, 0xac, 0xce, 0x4a, 0xfd, 0xf3, 0x48, 0xdd, 0xfe, 0xf1,
  0xb0, 0x8c, 0x9c, 0x31, 0x38, 0xda, 0x5c, 0x08, 0xd1, 0xb3, 0x06, 0x51,
  0x14, 0x14, 0xc6, 0x4b, 0xd1, 0x49, 0xe9, 0x0c, 0xf6, 0x60, 0x85, 0x36,
  0x2c, 0x3e, 0x05, 0x4f, 0xf1, 0xa0, 0x81, 0x4e, 0x5e, 0xd1, 0x6e, 0x2b,
  0xa0, 0x6e, 0xdd, 0x34, 0x13, 0xfe, 0xe9, 0x0f, 0x1b, 0xf0, 0xf7, 0x0f,
  0x1b, 0x0d, 0xf5, 0xe7, 0x11, 0x05, 0x1a, 0xfb, 0xff, 0x09, 0xf3, 0xf1,
  0x1e, 0xf2, 0x1d, 0xe6, 0x1e, 0xde, 0xe5, 0xf4, 0xf5, 0x1d, 0xfe, 0x12,
  0xd5, 0xe9, 0x0c, 0xf1, 0xeb, 0x06, 0x12, 0x10, 0xb9, 0xee, 0xe5, 0x03,
  0xf0, 0xed, 0x04, 0xdc, 0x47, 0x2a, 0x01, 0x22, 0xd7, 0xdd, 0xec, 0x29,
  0xd9, 0xf3, 0xeb, 0x22, 0x07, 0x7f, 0xec, 0xdb, 0xe6, 0xe4, 0xc7, 0xcf,
  0x1f, 0x0e, 0x21, 0xdf, 0xca, 0xdd, 0x43, 0x2c, 0x3a, 0x96, 0xd9, 0xa8,
  0x46, 0x54, 0x4f, 0xda, 0x21, 0xe9, 0x47, 0xcf, 0x56, 0xe8, 0x37, 0xfe,
  0x23, 0xe1, 0xfd, 0x0c, 0x13, 0xb9, 0x3e, 0xca, 0x8a, 0x04, 0x00, 0xd1,
  0x81, 0xb6, 0x25, 0xcc, 0x70, 0x2c, 0xa0, 0xa9, 0xbc, 0xf5, 0x46, 0x55,
  0xb7, 0xfd, 0xa6, 0x2c, 0x28, 0x42, 0x0f, 0x0f, 0xef, 0x56, 0xdf, 0xdf,
  0xdb, 0x4f, 0xce, 0x13, 0xf7, 0xb2, 0xfe, 0x1d, 0xf9, 0xb8, 0xc7, 0xc5,
  0x47, 0xab, 0x86, 0xea, 0x9d, 0xff, 0xbf, 0xe5, 0xdd, 0xe8, 0xf6, 0xce,
  0x07, 0x19, 0xcb, 0xc9, 0xea, 0x4c, 0x33, 0xdf, 0x1b, 0x03, 0x34, 0xa9,
  0x8c, 0xc4, 0x9e, 0x04, 0xd3, 0x08, 0xcd, 0x3a, 0xb6, 0x50, 0xbd, 0xf2,
  0xf8, 0xc0, 0x40, 0x4c, 0x03, 0xfe, 0x81, 0x58, 0xc9, 0xec, 0xee, 0xed,
  0x8c, 0x46, 0x88, 0x40, 0xb9, 0x97, 0x5d, 0xda, 0x89, 0xc3, 0x9e, 0xec,
  0x09, 0x91, 0x13, 0x7b, 0x4e, 0xca, 0x85, 0x1d, 0xd0, 0xc1, 0x7b, 0x83,
  0x24, 0x06, 0xdf, 0xb0, 0x14, 0x6b, 0xa0, 0x87, 0x31, 0xcc, 0x9b, 0xa0,
  0xdb, 0x9e, 0x42, 0x0b, 0x73, 0xbe, 0xba, 0x84, 0x32, 0xa7, 0x1f, 0x61,
  0xec, 0x32, 0x1b, 0x97, 0xc4, 0x4c, 0x7f, 0x96, 0x3d, 0xdb, 0x61, 0xa5,
  0x75, 0x54, 0x59, 0x9f, 0x9c, 0x47, 0x95, 0xf6, 0xaf, 0xe8, 0xe9, 0x84,
  0xa9, 0xa9, 0x61, 0xb1, 0xb4, 0x70, 0x18, 0xd6, 0xd8, 0x30, 0x0e, 0x54,
  0xbb, 0x9e, 0x63, 0x4e, 0xbc, 0x45, 0x7b, 0xb5, 0x85, 0x81, 0xcf, 0x59,
  0x14, 0xf0, 0x0b, 0x94, 0xcb, 0xb0, 0x9d, 0x6c, 0x91, 0x52, 0x55, 0xba,
  0xc7, 0xb8, 0x21, 0x88, 0xf5, 0xcf, 0xb0, 0xaa, 0x59, 0x99, 0xe8, 0xb1,
  0x46, 0xb8, 0xbf, 0x52, 0x9f, 0x0c, 0x65, 0xa4, 0x49, 0xa9, 0xf9, 0xa5,
  0x3c, 0xb9, 0xc8, 0xa3, 0x94, 0xbb, 0x99, 0x8a, 0xc8, 0xc7, 0x6b, 0x99,
  0xea, 0x0f, 0xe2, 0x5b, 0x85, 0x81, 0x18, 0x0d, 0xac, 0x68, 0x22, 0x2d,
  0xc6, 0xf4, 0x94, 0x15, 0x7e, 0x1c, 0x9c, 0x00, 0x95, 0xf7, 0xf9, 0x3e,
  0x59, 0xc2, 0x53, 0xa7, 0x92, 0x0e, 0x8b, 0x54, 0x1d, 0xde, 0x22, 0x17,
  0x06, 0x40, 0x9f, 0xfb, 0xc6, 0xd5, 0x4e, 0x8d, 0xf8, 0x98, 0xf1, 0x7b,
  0x69, 0x73, 0xfc, 0xc3, 0x07, 0xdc, 0xf0, 0x12, 0x07, 0x04, 0xed, 0x01,
  0x18, 0x17, 0xfc, 0x0e, 0x07, 0xf5, 0xfd, 0xec, 0xf6, 0x14, 0x8d, 0x0f,
  0x10, 0xf7, 0x09, 0xf7, 0xc2, 0x01, 0xe9, 0x13, 0xd1, 0xfc, 0xf2, 0x0c,
  0x08, 0xeb, 0x08, 0xdf, 0xfe, 0xf7, 0x1b, 0x17, 0xd3, 0xf0, 0x0a, 0xea,
  0x01, 0xd0, 0x13, 0xf0, 0x01, 0x15, 0x93, 0x0b, 0xa9, 0xc5, 0xee, 0x81,
  0xef, 0x03, 0x08, 0xfe, 0xec, 0x48, 0xe9, 0x02, 0x14, 0x2d, 0x3c, 0x1c,
  0x12, 0xef, 0x52, 0x19, 0x68, 0xa6, 0x1a, 0x3e, 0xe5, 0x0d, 0x4d, 0xf4,
  0x24, 0x3c, 0x1a, 0xf8, 0xdc, 0x16, 0x35, 0xff, 0x1e, 0x00, 0xdd, 0x0c,
  0x0a, 0x10, 0x42, 0x06, 0xfe, 0xf2, 0x29, 0x5f, 0x0f, 0xf7, 0x81, 0x0b,
  0xd7, 0x3c, 0xe6, 0xd7, 0xde, 0xec, 0xa8, 0xd7, 0x12, 0x27, 0xf2, 0x21,
  0x2e, 0x07, 0xef, 0x21, 0x7f, 0xde, 0xee, 0x0e, 0xfd, 0xaf, 0x39, 0x05,
  0xd8, 0x0d, 0x05, 0xb1, 0xf1, 0xec, 0xdf, 0xaa, 0xde, 0x17, 0xde, 0xe7,
  0x11, 0x2a, 0x1b, 0x31, 0x12, 0xed, 0xb2, 0xe5, 0x2c, 0x26, 0xf5, 0x81,
  0xb7, 0xfb, 0xd6, 0xeb, 0xb2, 0xfc, 0xe0, 0x06, 0xf3, 0x20, 0xfb, 0x15,
  0xe0, 0xb7, 0xcf, 0x48, 0xca, 0xbd, 0xc7, 0x02, 0xda, 0xb8, 0x26, 0x0e,
  0xf5, 0x33, 0xee, 0xfd, 0xc4, 0xda, 0x1d, 0x2a, 0xe5, 0x03, 0x2d, 0x29,
  0xc1, 0xe4, 0xa3, 0x15, 0xc3, 0x9b, 0x5b, 0x0e, 0x85, 0xdf, 0xfd, 0x81,
  0xa6, 0xbc, 0x21, 0x74, 0xa4, 0x92, 0x0a, 0x6c, 0x3e, 0x69, 0x1f, 0x9f,
  0x86, 0xe2, 0xcd, 0x98, 0x0d, 0xd0, 0xc2, 0x94, 0xd1, 0x71, 0x8f, 0x69,
  0xee, 0xd8, 0xb1, 0x60, 0x4e, 0x9f, 0x6a, 0xa4, 0xea, 0x9f, 0x3f, 0xa9,
  0xab, 0x26, 0x41, 0x9f, 0x06, 0x13, 0xb5, 0x46, 0x07, 0x36, 0xb2, 0xef,
  0x03, 0xc1, 0x90, 0xfc, 0x05, 0x0a, 0x48, 0x44, 0x1e, 0xe3, 0x05, 0x10,
  0x09, 0x0a, 0x1f, 0xf6, 0xac, 0x6d, 0xf4, 0x1b, 0xdb, 0xeb, 0xee, 0xd9,
  0xf8, 0x1b, 0xe1, 0xef, 0xef, 0xfd, 0xfb, 0xc9, 0xb5, 0xfb, 0x18, 0x02,
  0xd3, 0x0d, 0xd7, 0xdc, 0xde, 0x08, 0xfb, 0xf4, 0x16, 0x1c, 0x69, 0xd4,
  0xda, 0xcc, 0x27, 0x20, 0x0d, 0x14, 0x37, 0x1a, 0x01, 0x04, 0x06, 0x1d,
  0xf3, 0x11, 0xf0, 0x15, 0x81, 0xfb, 0xe2, 0xe2, 0xf0, 0xf3, 0xdf, 0x31,
  0x08, 0xf1, 0x03, 0x0a, 0x07, 0xfa, 0x05, 0x14, 0xe5, 0xe9, 0xef, 0xfc,
  0xed, 0xf6, 0xf1, 0x07, 0xf2, 0xfd, 0x1f, 0xff, 0xf4, 0x0d, 0xef, 0x0f,
  0xfd, 0x05, 0x22, 0xfd, 0x24, 0x04, 0x10, 0x0e, 0xfe, 0x0b, 0xfd, 0x21,
  0xff, 0x0d, 0xf7, 0x03, 0x08, 0xff, 0x08, 0x07, 0x03, 0x05, 0xf4, 0x0c,
  0xf8, 0x01, 0x23, 0xf1, 0x0a, 0x0e, 0x11, 0xfc, 0x23, 0xfe, 0x01, 0xef,
  0x17, 0x81, 0x07, 0x0e, 0x11, 0xb7, 0xd9, 0x0c, 0x21, 0xe1, 0x19, 0xf1,
  0xff, 0xfa, 0x23, 0xea, 0xf9, 0x2a, 0xde, 0x05, 0x0b, 0xea, 0x17, 0x02,
  0x11, 0xf5, 0xd2, 0xf2, 0xe3, 0x0c, 0xf9, 0x01, 0x1d, 0x1d, 0x1b, 0xda,
  0x15, 0x81, 0x16, 0x24, 0x00, 0xe7, 0x0b, 0xfe, 0x00, 0xde, 0xf4, 0x0e,
  0x10, 0x22, 0xfb, 0x0b, 0xf9, 0xda, 0x21, 0xfe, 0x2a, 0x0d, 0x1a, 0x08,
  0x22, 0x0f, 0xfb, 0xee, 0x12, 0xf9, 0xfc, 0x13, 0x40, 0x5b, 0x92, 0x18,
  0xa9, 0x4e, 0xae, 0x0e, 0xa8, 0x92, 0xb5, 0x0b, 0x0d, 0x4f, 0x13, 0x1e,
  0x12, 0xfe, 0xcf, 0x32, 0x16, 0xc5, 0xb6, 0x8b, 0x42, 0x9d, 0x0d, 0x02,
  0x04, 0x93, 0x1d, 0x90, 0x61, 0x5b, 0x4b, 0x16, 0xe3, 0x4b, 0x27, 0x01,
  0x8c, 0xa5, 0x10, 0xc3, 0xe6, 0xaa, 0xef, 0x99, 0x2c, 0xff, 0x19, 0xc0,
  0x2b, 0x81, 0x08, 0x0a, 0xf3, 0xc8, 0x11, 0x05, 0xa4, 0xdd, 0x32, 0x27,
  0x07, 0xe1, 0x00, 0xf5, 0xf8, 0xe2, 0xf8, 0x01, 0x18, 0xe9, 0x17, 0x0a,
  0x9c, 0x07, 0xf6, 0xf7, 0x11, 0xf9, 0x0e, 0x01, 0x18, 0xf4, 0xe3, 0x0f,
  0x0a, 0xef, 0x12, 0x0c, 0xf4, 0xef, 0x07, 0xfb, 0x0a, 0xd4, 0xfe, 0x11,
  0x07, 0x00, 0xe4, 0x0d, 0x0e, 0xf7, 0xf7, 0xf0, 0x0e, 0x16, 0x08, 0x0d,
  0x01, 0xef, 0xff, 0xfe, 0xff, 0x00, 0xf4, 0xf8, 0x25, 0x07, 0xd3, 0x8d,
  0xfa, 0x7f, 0x0a, 0xfe, 0x43, 0x03, 0x34, 0x11, 0x42, 0xfc, 0x26, 0x16,
  0x8a, 0x9d, 0xe1, 0xf7, 0xe6, 0x25, 0xa1, 0x0f, 0x37, 0x11, 0xb7, 0xb7,
  0x2d, 0xd5, 0xb5, 0x0f, 0x33, 0xb6, 0xce, 0xa5, 0x1d, 0xd7, 0xc9, 0xb8,
  0x12, 0x17, 0x49, 0xcd, 0x2c, 0xa5, 0x8a, 0x2b, 0xc2, 0x25, 0xd9, 0xe8,
  0xe0, 0x24, 0xc4, 0xdd, 0xb9, 0xec, 0xeb, 0x2d, 0x32, 0x16, 0xe6, 0xf5,
  0x4d, 0x17, 0xbd, 0xdf, 0x2b, 0x7f, 0x02, 0xef, 0x16, 0xfe, 0xfb, 0x00,
  0x03, 0xf1, 0xee, 0x06, 0x2e, 0x47, 0x00, 0x00, 0x06, 0x01, 0x12, 0x10,
  0x19, 0x09, 0xe8, 0x05, 0x12, 0xf0, 0x03, 0x0c, 0xe7, 0x09, 0xeb, 0x01,
  0xea, 0x00, 0xec, 0x1b, 0x04, 0xe8, 0xf7, 0xd9, 0x15, 0x12, 0x30, 0x36,
  0xe7, 0x07, 0x22, 0xfb, 0xf2, 0xf8, 0x14, 0x14, 0x12, 0x03, 0xfd, 0xe5,
  0xf0, 0xf7, 0x09, 0x04, 0xb2, 0x06, 0x05, 0xfa, 0x02, 0x7f, 0x02, 0x11,
  0xfd, 0xeb, 0x1c, 0xe8, 0x30, 0x25, 0x01, 0xdd, 0x57, 0x1d, 0x16, 0xe5,
  0x00, 0x04, 0x2b, 0xf5, 0x11, 0x1d, 0xc3, 0x05, 0x2b, 0xe8, 0xed, 0xc8,
  0x13, 0xe2, 0xe9, 0xdb, 0x8f, 0x7c, 0xcf, 0x21, 0x0b, 0x18, 0x1b, 0xde,
  0x2f, 0xed, 0xfe, 0x72, 0x00, 0x24, 0xd3, 0x04, 0x16, 0xf0, 0xfd, 0xe0,
  0x69, 0x66, 0xe5, 0xf9, 0xf9, 0xdb, 0xd1, 0xfe, 0xb2, 0xf0, 0x0b, 0x0d,
  0xd8, 0x7f, 0xce, 0xbb, 0x2d, 0x38, 0xe3, 0x1d, 0xdc, 0x29, 0xe3, 0xe7,
  0x5c, 0x03, 0xe4, 0xd3, 0x21, 0xe5, 0x48, 0x1c, 0xe5, 0x37, 0xa0, 0x02,
  0xf5, 0x19, 0xe0, 0x98, 0x05, 0xd9, 0x07, 0xcf, 0xb1, 0x7f, 0xf1, 0xe4,
  0xcf, 0x01, 0xbe, 0xba, 0x1c, 0x01, 0x20, 0x75, 0xb9, 0x1e, 0xbd, 0x2c,
  0xcc, 0xed, 0xc3, 0xdb, 0x52, 0x52, 0xf7, 0x01, 0x2a, 0x2d, 0xb1, 0x08,
  0x8c, 0xb2, 0x4b, 0xe7, 0xb2, 0xdc, 0xd4, 0xae, 0x04, 0x9b, 0xd2, 0xed,
  0xee, 0xf5, 0x0c, 0xf9, 0xd8, 0x17, 0xef, 0x02, 0x2f, 0x0a, 0xe7, 0xf2,
  0xe0, 0x12, 0x92, 0xfd, 0x09, 0xe2, 0x1b, 0xe5, 0xa4, 0x21, 0xd5, 0xfe,
  0x81, 0xdd, 0xff, 0xfb, 0x1e, 0xef, 0x0e, 0xce, 0x0e, 0x05, 0x0f, 0x14,
  0xe6, 0xea, 0x0e, 0x17, 0x01, 0x0e, 0x03, 0xe8, 0x00, 0x37, 0x88, 0x12,
  0x18, 0x02, 0xfb, 0x1b, 0x94, 0xf6, 0xfe, 0xf7, 0x00, 0x07, 0x0b, 0x0c,
  0x42, 0xf2, 0xff, 0xff, 0x04, 0x00, 0x00, 0x00, 0x00, 0x08, 0x00, 0x00,
  0xbe, 0xf8, 0x92, 0xbe, 0x60, 0x2a, 0x75, 0xbe, 0x8a, 0xc3, 0xcf, 0x3e,
  0xf4, 0x54, 0x00, 0x3e, 0x77, 0x35, 0x8c, 0xbe, 0x0c, 0x5e, 0x67, 0xbe,
  0xec, 0x3b, 0x18, 0x3e, 0x19, 0x25, 0x21, 0xbe, 0x0c, 0x81, 0xa8, 0x3d,
  0xc1, 0xea, 0x9c, 0x3e, 0x84, 0xb1, 0x5d, 0xbe, 0x4f, 0x91, 0x1c, 0xbd,
  0x56, 0x78, 0x7a, 0x3f, 0xbf, 0xd9, 0x82, 0xbd, 0x35, 0x0f, 0xe8, 0xbd,
  0x28, 0x2c, 0x1d, 0xbd, 0xa3, 0x59, 0x06, 0xbe, 0x86, 0x5a, 0x04, 0x3e,
  0xc5, 0x28, 0x6c, 0x3e, 0x73, 0x17, 0xf9, 0xbd, 0x93, 0x99, 0x8e, 0x3e,
  0x59, 0x20, 0x77, 0x3d, 0x14, 0xeb, 0xe4, 0xbe, 0x09, 0x58, 0x28, 0xbf,
  0x34, 0x44, 0xa9, 0x3d, 0xe4, 0xc6, 0x2e, 0x3e, 0xd6, 0x92, 0x05, 0x3f,
  0x9d, 0x30, 0x69, 0x3b, 0x4c, 0x03, 0x7e, 0x3d, 0x40, 0xe7, 0x7b, 0x3f,
  0x0c, 0x47, 0x04, 0x3f, 0xea, 0x5b, 0xf7, 0xbd, 0xe2, 0xda, 0xa5, 0xbe,
  0x10, 0xbd, 0xf8, 0x3d, 0x56, 0xfa, 0x1b, 0xbd, 0x93, 0xb8, 0xde, 0xbd,
  0xa8, 0xc5, 0x31, 0x3f, 0x46, 0xb1, 0x30, 0x3e, 0xc7, 0xd2, 0x7c, 0xbe,
  0x63, 0x8e, 0x75, 0x3e, 0x63, 0x27, 0x67, 0xbe, 0xc9, 0x1c, 0x0b, 0xbe,
  0xde, 0x24, 0x12, 0x3e, 0x37, 0x81, 0x9c, 0x3d, 0x33, 0x63, 0x5a, 0xbe,
  0xb5, 0x79, 0x96, 0xbe, 0xc6, 0x4a, 0xfc, 0x3d, 0xa0, 0xd0, 0xee, 0xbc,
  0xf2, 0x77, 0x9d, 0xbe, 0x34, 0x51, 0x29, 0xbe, 0x07, 0xad, 0x9d, 0xbd,
  0xbb, 0x6a, 0xb2, 0xbd, 0x91, 0x16, 0x49, 0x3e, 0x0e, 0xf7, 0x58, 0x3e,
  0xfc, 0x05, 0x69, 0x3e, 0x7f, 0x33, 0xb7, 0x3e, 0x16, 0xe6, 0xa5, 0x3e,
  0x9a, 0xad, 0xbb, 0x3d, 0x38, 0x53, 0xc4, 0x3d, 0x80, 0x85, 0x85, 0x3e,
  0x77, 0x57, 0xaa, 0x3e, 0x8b, 0x67, 0x01, 0x3e, 0x97, 0xce, 0x2e, 0x3c,
  0xa2, 0x5a, 0x61, 0xbe, 0x68, 0x23, 0x5b, 0xbe, 0xaa, 0x08, 0x63, 0xbe,
  0x60, 0x41, 0xf0, 0xbc, 0xa0, 0x16, 0x9e, 0x3e, 0x96, 0xd6, 0x8d, 0xbe,
  0x8e, 0xfd, 0x43, 0x3e, 0xd8, 0xee, 0x31, 0x3d, 0x79, 0x80, 0x8b, 0xbe,
  0xdf, 0x2f, 0xa9, 0xbd, 0xb0, 0xd8, 0xff, 0x3d, 0x85, 0x36, 0xad, 0xbe,
  0x53, 0xe9, 0x44, 0x3e, 0x4c, 0xc6, 0x95, 0xbe, 0xdb, 0x98, 0x8b, 0x3e,
  0x8d, 0xca, 0x6a, 0xbe, 0xa8, 0x10, 0x79, 0xbe, 0x92, 0x2b, 0x1e, 0x3e,
  0xcb, 0xe8, 0x9d, 0x3e, 0xc0, 0xa9, 0x1b, 0x3c, 0xae, 0xe1, 0xa4, 0xbe,
  0xcd, 0xf1, 0xea, 0x3d, 0x65, 0xe2, 0x4c, 0xbe, 0x3b, 0xf5, 0x11, 0x3e,
  0xe0, 0x53, 0x4f, 0xbe, 0xa7, 0x2c, 0x48, 0x3e, 0x2e, 0xda, 0x40, 0x3e,
  0x12, 0x9a, 0x07, 0xbe, 0xf8, 0x72, 0x98, 0x3e, 0x00, 0x30, 0x06, 0x3d,
  0x17, 0x40, 0x98, 0xbe, 0x21, 0x03, 0xc4, 0xbd, 0x70, 0x18, 0xc2, 0xbd,
  0xfa, 0x30, 0x29, 0xbf, 0x3b, 0x49, 0xfa, 0x3d, 0x3a, 0x2a, 0xaf, 0x3e,
  0x09, 0xf2, 0x19, 0x3e, 0xb9, 0x8e, 0x85, 0x3e, 0x9a, 0x03, 0xf8, 0xbd,
  0x41, 0x08, 0x8c, 0x3e, 0x67, 0xcc, 0xd7, 0x3d, 0x6a, 0xaa, 0x86, 0xbf,
  0x85, 0x90, 0x31, 0x3d, 0x5c, 0x98, 0x8e, 0x3e, 0xb6, 0xf0, 0x57, 0xbe,
  0x5f, 0x7e, 0x62, 0x3e, 0x0a, 0xb6, 0x93, 0x3e, 0xff, 0xd4, 0x54, 0x3b,
  0xda, 0x87, 0x35, 0xbe, 0x77, 0x66, 0x89, 0x3e, 0xae, 0xfd, 0x3c, 0x3e,
  0x30, 0x6a, 0x7c, 0x3d, 0xc1, 0x6e, 0x56, 0xbf, 0x5b, 0x1b, 0xdc, 0xbd,
  0xd6, 0xdb, 0xb9, 0x3e, 0x20, 0x36, 0x51, 0x3e, 0x50, 0xb6, 0x8b, 0xbe,
  0x8f, 0xb8, 0x8d, 0xbe, 0xd9, 0xd7, 0x78, 0xbe, 0x89, 0xf6, 0x30, 0xbe,
  0xde, 0x7d, 0x8b, 0x3d, 0xab, 0x0a, 0x30, 0x3f, 0x36, 0x93, 0xd5, 0x3e,
  0x90, 0x5a, 0x91, 0x3e, 0x5d, 0x9d, 0x01, 0x3e, 0xa9, 0xf5, 0xd1, 0xbe,
  0xaa, 0xe3, 0x43, 0x3e, 0x90, 0x96, 0x75, 0xbe, 0xf3, 0x20, 0xa1, 0x3e,
  0x95, 0x86, 0xb7, 0x3d, 0x64, 0x2e, 0x97, 0xbd, 0x8d, 0xcb, 0x4e, 0x3e,
  0x7d, 0x56, 0x78, 0x3e, 0x9a, 0x2f, 0xa3, 0x3d, 0x2b, 0xef, 0x19, 0xbe,
  0x91, 0x3b, 0x9a, 0xbe, 0x96, 0x58, 0xa1, 0x3e, 0x08, 0x0a, 0x87, 0xbe,
  0x42, 0x9d, 0xa7, 0x3d, 0xd8, 0xeb, 0x8b, 0xbe, 0x5a, 0x2f, 0x9e, 0xbe,
  0x9a, 0xd4, 0x74, 0x3e, 0x80, 0x86, 0x87, 0x3d, 0x5c, 0x0b, 0x8c, 0x3e,
  0x4b, 0xf3, 0x82, 0xbe, 0x1a, 0xc0, 0x63, 0xbe, 0x44, 0x8a, 0xcc, 0xbd,
  0x0f, 0x8b, 0x76, 0xbe, 0xe6, 0x4e, 0x89, 0x3c, 0xe6, 0x18, 0x66, 0x3e,
  0x66, 0xb4, 0xac, 0xbd, 0x7e, 0xdf, 0xd9, 0xbe, 0x89, 0x89, 0x56, 0xbe,
  0x29, 0x6f, 0xfd, 0xbd, 0xe6, 0x9b, 0x91, 0xbd, 0xf0, 0xfb, 0xa3, 0xbe,
  0x3e, 0xb3, 0xd9, 0xbe, 0xaf, 0x9c, 0x4d, 0xbe, 0x63, 0x9a, 0x67, 0xbd,
  0x39, 0x79, 0x44, 0xbd, 0x72, 0xfc, 0x1d, 0xbe, 0x10, 0x14, 0xec, 0x3e,
  0x08, 0x6c, 0x07, 0x3e, 0x26, 0x7c, 0x4d, 0xbe, 0xeb, 0xea, 0x38, 0xbe,
  0xdb, 0x6d, 0xe6, 0xbd, 0x87, 0x5e, 0xef, 0x3d, 0xe6, 0xd8, 0x4e, 0x3e,
  0xb6, 0xf8, 0x23, 0x3e, 0xcc, 0x32, 0xed, 0x3e, 0x35, 0x67, 0x8c, 0x3e,
  0x5a, 0x5d, 0xb2, 0xbe, 0x00, 0x58, 0x5c, 0x3c, 0x22, 0xcc, 0x0b, 0xbe,
  0x6c, 0x92, 0xef, 0xbd, 0xe6, 0x57, 0x8e, 0x3e, 0x6f, 0xbb, 0x01, 0xbe,
  0x5f, 0x75, 0x87, 0xbe, 0xe3, 0x54, 0x28, 0xbc, 0x5f, 0x11, 0xfe, 0x3e,
  0x05, 0xad, 0x5e, 0xbe, 0x0c, 0x94, 0xfe, 0x3d, 0x74, 0x4a, 0xd8, 0x3d,
  0xd8, 0xa4, 0x7f, 0x3e, 0x83, 0xa8, 0x03, 0x3d, 0xd2, 0xdc, 0x41, 0x3f,
  0x1e, 0xbf, 0x7b, 0x3d, 0x5e, 0xa1, 0x98, 0xbe, 0x4c, 0x1b, 0xe8, 0x3d,
  0xe4, 0x58, 0xdf, 0xbe, 0xee, 0x3e, 0x22, 0xbe, 0x39, 0xe4, 0xe6, 0x3d,
  0x3e, 0x3b, 0xe7, 0xbc, 0xcf, 0xe5, 0xec, 0xbd, 0x2a, 0xec, 0x54, 0xbe,
  0xf0, 0xbe, 0x4f, 0xbe, 0x9b, 0xaf, 0x5d, 0xbe, 0x75, 0x75, 0x52, 0x3e,
  0xe0, 0x9a, 0x8e, 0xbe, 0x58, 0x45, 0xd8, 0x3d, 0xca, 0xe5, 0x84, 0xbe,
  0x62, 0xaf, 0x30, 0x3e, 0xc7, 0x1c, 0xe5, 0xbc, 0xc0, 0xf9, 0xcd, 0xbd,
  0x8c, 0x12, 0x05, 0xbe, 0x1d, 0x07, 0x71, 0x3e, 0x38, 0xbf, 0x3a, 0xbd,
  0x18, 0x98, 0xba, 0xbe, 0x6c, 0x6b, 0xa7, 0xbe, 0x43, 0x7d, 0x80, 0xbd,
  0x04, 0x7c, 0xc5, 0xbd, 0xbd, 0xfe, 0x82, 0xbd, 0x6b, 0x64, 0x9f, 0xbe,
  0x41, 0x16, 0x29, 0xbe, 0x0b, 0xf0, 0x8f, 0x3e, 0xb9, 0xa7, 0x1d, 0xbd,
  0x5d, 0xe4, 0x8c, 0x3e, 0x17, 0x06, 0x0f, 0x3e, 0x52, 0x0d, 0xb6, 0xbe,
  0x6e, 0x86, 0xc8, 0xbe, 0x9c, 0x30, 0x48, 0xbe, 0xe2, 0x97, 0x9f, 0xbe,
  0x27, 0x88, 0x3f, 0x3d, 0xfe, 0x51, 0xa7, 0xbc, 0x13, 0xef, 0x1a, 0xbe,
  0x13, 0x73, 0xb2, 0xbe, 0xfa, 0x85, 0x78, 0x3e, 0xa0, 0x0e, 0x56, 0xbe,
  0x3c, 0x02, 0xf4, 0x3d, 0xdf, 0x32, 0x8b, 0x3d, 0x27, 0xe1, 0xaf, 0x3e,
  0x3a, 0xb6, 0xb7, 0xbd, 0xc4, 0xc2, 0x9a, 0x3e, 0xdf, 0x74, 0x5b, 0xbe,
  0x07, 0x57, 0xa6, 0x3e, 0x44, 0x5d, 0xf0, 0x3d, 0x77, 0x92, 0x86, 0x3e,
  0x0d, 0xdb, 0x17, 0x3e, 0xc5, 0x6a, 0xaf, 0xbe, 0x7a, 0x22, 0x34, 0x3d,
  0xe8, 0x8b, 0xdf, 0xbe, 0xb1, 0x9a, 0x9a, 0xbd, 0x46, 0xbb, 0x1b, 0x3e,
  0xb2, 0x1c, 0xc0, 0xbd, 0x0f, 0x51, 0xa8, 0x3d, 0xdf, 0x79, 0xbb, 0xbe,
  0xb9, 0x81, 0xf7, 0x3d, 0x53, 0x64, 0xa1, 0xbe, 0x88, 0x83, 0x5b, 0xbe,
  0x41, 0x73, 0x26, 0xbe, 0x51, 0xcc, 0x4f, 0xbe, 0xeb, 0x6b, 0x48, 0x3d,
  0x07, 0x81, 0xe4, 0xbd, 0x42, 0x16, 0x4a, 0x3e, 0xdc, 0x11, 0x05, 0xbe,
  0xd6, 0x97, 0x59, 0x3e, 0xa5, 0x6e, 0x01, 0xbe, 0x7c, 0x76, 0x90, 0xbe,
  0x8e, 0x62, 0x84, 0xbe, 0xef, 0xd1, 0x6e, 0x3d, 0x08, 0x48, 0xaf, 0xbd,
  0x6b, 0x1a, 0x13, 0x3f, 0xaa, 0xea, 0x8a, 0x3e, 0x21, 0x3b, 0xc7, 0x3e,
  0x83, 0x53, 0x1d, 0xbe, 0x08, 0x78, 0x0e, 0xbc, 0x70, 0xb9, 0xf3, 0xbd,
  0xe5, 0xec, 0x9d, 0xbe, 0x98, 0xda, 0x75, 0x3d, 0xfa, 0xbd, 0x37, 0xbe,
  0x15, 0x80, 0xa9, 0xbe, 0x15, 0x75, 0x86, 0x3e, 0x4d, 0x7c, 0xd3, 0x3b,
  0xab, 0xf0, 0x03, 0xbe, 0x42, 0x93, 0x12, 0x3e, 0xd5, 0xa5, 0xa9, 0x3d,
  0xbe, 0x2d, 0x0c, 0x3d, 0xc8, 0x7d, 0xfe, 0x3e, 0x19, 0x51, 0xa9, 0xbd,
  0x0d, 0x75, 0xa1, 0xbc, 0x6b, 0x5a, 0xc6, 0x3e, 0x27, 0x60, 0x9f, 0xbd,
  0x0f, 0x4d, 0xb5, 0x3d, 0xeb, 0x88, 0x5c, 0x3e, 0x4a, 0xd0, 0x0d, 0xbc,
  0xd1, 0x0b, 0xf3, 0x3d, 0x5d, 0x79, 0xab, 0xbe, 0x9a, 0xaf, 0xec, 0x3e,
  0xac, 0x23, 0x32, 0xbe, 0xdc, 0xf6, 0x25, 0xbf, 0xa7, 0x62, 0x81, 0x3e,
  0x13, 0x4a, 0x55, 0xbd, 0x1a, 0xa2, 0xa2, 0x3c, 0xec, 0x0b, 0x58, 0x3e,
  0x40, 0x22, 0x56, 0x3a, 0x9a, 0x55, 0xac, 0x3c, 0x59, 0x52, 0x96, 0x3e,
  0x64, 0xd0, 0x17, 0x3c, 0x5c, 0x88, 0xc2, 0x3d, 0x0c, 0xa9, 0x13, 0x3e,
  0x4c, 0x8a, 0xb8, 0xbd, 0xa6, 0x72, 0x12, 0x3e, 0x40, 0xda, 0x98, 0x3c,
  0x63, 0x79, 0x9d, 0xbe, 0x3c, 0xf8, 0x19, 0x3e, 0x9d, 0x95, 0x1f, 0xbd,
  0x10, 0x8b, 0x04, 0xbd, 0x3c, 0x3f, 0x46, 0xbe, 0x7f, 0x8d, 0x28, 0x3e,
  0x3b, 0xf2, 0xc7, 0xbc, 0x96, 0xbb, 0x02, 0x3e, 0x2f, 0x27, 0xdf, 0x3d,
  0xce, 0xbe, 0xde, 0xbb, 0xc7, 0x8c, 0xd5, 0xbe, 0x0a, 0xb5, 0xdf, 0x3e,
  0x46, 0xd7, 0x16, 0xbd, 0xdd, 0x59, 0xb5, 0xbd, 0x3f, 0xa4, 0x90, 0xbe,
  0x73, 0x34, 0xcd, 0x3d, 0x78, 0x63, 0xb9, 0x3e, 0xb6, 0x5d, 0xab, 0x3e,
  0x8a, 0x75, 0x02, 0x3f, 0x47, 0x26, 0xa7, 0xbe, 0xbc, 0xfa, 0x76, 0xbe,
  0x32, 0x00, 0x56, 0xbe, 0x83, 0x45, 0xa5, 0xbb, 0x06, 0xd8, 0x24, 0xbe,
  0x6b, 0xce, 0x45, 0x3e, 0x57, 0xe5, 0x2d, 0xbe, 0xd8, 0x15, 0x93, 0xbd,
  0xb8, 0x9e, 0xf7, 0x3d, 0xa7, 0x57, 0x95, 0xbe, 0xa8, 0xee, 0xa6, 0xbd,
  0x96, 0xef, 0x2e, 0xbe, 0x0e, 0xd5, 0x4b, 0x3e, 0xe5, 0x25, 0x81, 0x3e,
  0xbd, 0x93, 0xa6, 0x3c, 0x52, 0x88, 0x9d, 0x3d, 0xf9, 0x84, 0x82, 0x3e,
  0x1c, 0x2e, 0x8f, 0x3d, 0x22, 0x68, 0x22, 0xbf, 0x9a, 0x9f, 0x4e, 0xbe,
  0xc6, 0x42, 0x87, 0xbe, 0x19, 0x48, 0x4f, 0x3e, 0xcf, 0x0b, 0x88, 0xbd,
  0x2d, 0xee, 0x03, 0x3f, 0x58, 0xf8, 0x49, 0x3e, 0xf2, 0x93, 0xff, 0x3d,
  0x8a, 0x21, 0x22, 0x3e, 0xff, 0x31, 0x4f, 0x3d, 0xe3, 0x38, 0xd3, 0xbb,
  0xea, 0x5c, 0x96, 0x3e, 0xcb, 0x52, 0x60, 0xbe, 0xc8, 0x8b, 0x21, 0xbf,
  0xb6, 0xa6, 0x30, 0x3e, 0x4c, 0x69, 0x08, 0x3b, 0x13, 0x5a, 0x6b, 0x3e,
  0x2a, 0x83, 0xbc, 0xbe, 0xd9, 0xfb, 0xe6, 0x3c, 0xc6, 0x3a, 0x1d, 0xbd,
  0x4e, 0xee, 0x91, 0x3e, 0x4c, 0x69, 0xdf, 0x3e, 0xc3, 0x87, 0xc8, 0x3e,
  0x4b, 0xa9, 0x6b, 0x3e, 0x50, 0x30, 0x53, 0x3d, 0x20, 0x28, 0xe4, 0x3d,
  0x4d, 0xb9, 0x3a, 0xbe, 0x28, 0x5e, 0x26, 0x3e, 0xe2, 0x58, 0x1e, 0xbe,
  0x5f, 0x35, 0x88, 0xbe, 0xa8, 0xdd, 0x95, 0xbe, 0xf7, 0x81, 0x00, 0xbf,
  0xa2, 0xb9, 0x43, 0x3e, 0x81, 0x0c, 0xf1, 0xbe, 0x6e, 0xca, 0x68, 0xbe,
  0x9b, 0x68, 0x9d, 0x3d, 0xeb, 0xd7, 0xeb, 0xbc, 0xd1, 0x78, 0x6f, 0x3d,
  0xf4, 0xe6, 0x84, 0x3e, 0xcd, 0xa5, 0xb6, 0xbc, 0x3e, 0xc4, 0x63, 0xbd,
  0x47, 0xe8, 0xb0, 0xbe, 0x37, 0x1e, 0x52, 0x3e, 0xc3, 0x8f, 0x81, 0x3e,
  0x47, 0x96, 0x47, 0x3e, 0x54, 0xf1, 0x51, 0x3e, 0xc0, 0xe3, 0x35, 0x3c,
  0x4b, 0x98, 0x6e, 0x3e, 0x22, 0x61, 0x17, 0x3e, 0xfd, 0x20, 0x54, 0xbe,
  0xef, 0x4a, 0xa2, 0x3e, 0xdc, 0x7d, 0x8c, 0x3e, 0x04, 0x68, 0xac, 0xbb,
  0x85, 0x14, 0xa3, 0xbe, 0xc3, 0xec, 0x6d, 0x3d, 0xeb, 0xd9, 0x2a, 0xbe,
  0xea, 0xfc, 0x82, 0xbe, 0x52, 0x74, 0x1f, 0x3e, 0x36, 0x35, 0xa0, 0xbe,
  0x7c, 0xf4, 0xc5, 0xbe, 0x74, 0x3a, 0x08, 0xbe, 0x30, 0xa4, 0x7a, 0xbc,
  0x9b, 0x60, 0x21, 0xbe, 0x2d, 0x7c, 0x58, 0x3e, 0x00, 0xb3, 0x5c, 0x3e,
  0x66, 0x10, 0xab, 0xbd, 0x89, 0x43, 0x5a, 0x3d, 0x17, 0xa4, 0xeb, 0x3d,
  0x0f, 0xaf, 0x97, 0x3d, 0x4f, 0x1c, 0x56, 0x3f, 0xf4, 0x7f, 0x36, 0xbe,
  0xe4, 0x08, 0xa9, 0x3e, 0x67, 0x41, 0xaa, 0xbe, 0x95, 0x19, 0x07, 0xbe,
  0xdb, 0xf0, 0x07, 0x3d, 0x59, 0x27, 0x62, 0xbe, 0xc6, 0xed, 0xa8, 0x3c,
  0x98, 0x7d, 0xd7, 0x3e, 0x00, 0x6f, 0x9e, 0xbb, 0x08, 0x80, 0xaa, 0x3e,
  0x9a, 0xf3, 0xa4, 0x3e, 0x12, 0x31, 0x49, 0x3e, 0x40, 0x11, 0x95, 0x3e,
  0x55, 0xb1, 0x89, 0x3e, 0x36, 0x4c, 0x93, 0x3e, 0x8f, 0x66, 0x0d, 0xbc,
  0xb0, 0x13, 0x7d, 0xbe, 0x6a, 0xd1, 0x8c, 0xbd, 0xd0, 0xe5, 0x01, 0x3d,
  0x48, 0x3b, 0x8c, 0xbe, 0x12, 0xd0, 0x77, 0x3e, 0x1b, 0xaf, 0xa6, 0x3d,
  0xe5, 0x3e, 0x84, 0x3e, 0x92, 0x78, 0x82, 0x3e, 0x7e, 0x55, 0x9f, 0xbe,
  0xf6, 0xa9, 0x95, 0x3e, 0xcf, 0x51, 0x84, 0xbd, 0x95, 0x3b, 0x35, 0xbd,
  0xf5, 0xb7, 0x94, 0xbe, 0xca, 0x54, 0x8a, 0xbe, 0x35, 0xc6, 0x98, 0xbc,
  0x21, 0x72, 0x66, 0xbe, 0x10, 0xa1, 0x92, 0x3e, 0x44, 0xa9, 0xf4, 0x3d,
  0x00, 0xaa, 0x0d, 0xbd, 0x72, 0x5c, 0x5e, 0xbe, 0xfd, 0x26, 0xe9, 0xbd,
  0xf0, 0x90, 0x2c, 0x3d, 0x76, 0x25, 0xde, 0xbd, 0x9a, 0xad, 0x96, 0xbc,
  0xd8, 0xcf, 0x40, 0xbd, 0xb6, 0x9e, 0xe2, 0xbd, 0x74, 0x1f, 0xab, 0xbe,
  0x4c, 0x8f, 0x87, 0x3c, 0x16, 0x56, 0x46, 0x3e, 0x71, 0xc9, 0xac, 0xbe,
  0xd1, 0xa2, 0xb3, 0xbc, 0x4e, 0xd5, 0x0b, 0xbe, 0x0b, 0xd4, 0xd8, 0xbd,
  0xd9, 0xb0, 0x8c, 0x3e, 0x16, 0x68, 0x3c, 0x3e, 0x0d, 0xe2, 0x96, 0x3e,
  0x26, 0xe1, 0x51, 0x3e, 0x96, 0xb7, 0xac, 0xbe, 0x8d, 0xe6, 0x0e, 0x3e,
  0xdc, 0xbd, 0xad, 0x3d, 0xf6, 0x2e, 0x6c, 0x3e, 0xa9, 0x80, 0x65, 0x3e,
  0x30, 0xbe, 0x20, 0xbe, 0xff, 0x10, 0x2a, 0x3d, 0x70, 0x11, 0x9d, 0xbe,
  0x1c, 0x0c, 0x60, 0xbe, 0x0c, 0xad, 0x6b, 0xbe, 0x5f, 0x1d, 0xa5, 0xbe,
  0x46, 0x33, 0xf5, 0xbd, 0x00, 0x2c, 0x15, 0xbc, 0x14, 0xf9, 0xa3, 0xbe,
  0xd1, 0x62, 0xb5, 0xbe, 0x0a, 0x09, 0x1b, 0xbe, 0xec, 0xc7, 0x08, 0xc0,
  0x34, 0x6a, 0x83, 0xbe, 0x4c, 0x8c, 0x71, 0x3e, 0x6e, 0xae, 0x53, 0x3e,
  0xc7, 0xd7, 0x71, 0xbf, 0x30, 0x25, 0x09, 0x3e, 0x80, 0x4e, 0xeb, 0xbd,
  0x76, 0x40, 0x69, 0xbe, 0xde, 0x53, 0x2e, 0xbe, 0xcb, 0x0d, 0x1f, 0xbe,
  0x15, 0x24, 0x04, 0x3f, 0x0d, 0x1d, 0xe1, 0xbd, 0xd4, 0xf8, 0xe2, 0xbd,
  0x90, 0xdd, 0x60, 0x3d, 0x42, 0x49, 0x6d, 0x3e, 0xb6, 0x21, 0x2b, 0x3e,
  0x94, 0x36, 0x5f, 0x3f, 0x1a, 0xe6, 0x57, 0x3d, 0x6e, 0x86, 0x68, 0x3d,
  0x9c, 0xc4, 0x87, 0xbe, 0xfe, 0x24, 0x58, 0x3e, 0x84, 0x21, 0xa7, 0xbf,
  0xbc, 0x37, 0x31, 0x3e, 0x2f, 0xc4, 0x8e, 0xbe, 0xee, 0x86, 0x90, 0xbe,
  0x51, 0x2d, 0x10, 0x3c, 0xf6, 0x96, 0x40, 0x3e, 0x7f, 0xfe, 0x2d, 0x3e,
  0x11, 0xb2, 0x49, 0x3d, 0x82, 0x09, 0xa0, 0x3e, 0x4e, 0xfa, 0xff, 0xff,
  0x04, 0x00, 0x00, 0x00, 0x00, 0x01, 0x00, 0x00, 0x75, 0x1a, 0xa5, 0xbf,
  0x22, 0xfc, 0xd8, 0x3e, 0x27, 0x93, 0x08, 0xbf, 0xf1, 0xca, 0x56, 0x3e,
  0x5e, 0xff, 0xf9, 0x3e, 0x09, 0xd1, 0x65, 0x3e, 0x71, 0x5b, 0xa9, 0xbe,
  0xed, 0x64, 0xc1, 0xbe, 0x52, 0x73, 0x8b, 0xbf, 0x2f, 0x36, 0x1e, 0xbf,
  0x69, 0x96, 0xd3, 0x3d, 0xa1, 0x88, 0xf6, 0xbe, 0x42, 0x67, 0x8b, 0x3d,
  0x41, 0x93, 0x36, 0x3c, 0x4a, 0xa5, 0xf7, 0x3e, 0x69, 0xb7, 0xa4, 0xbf,
  0x47, 0x42, 0x90, 0x3e, 0x9e, 0xf2, 0xf6, 0x3d, 0x8b, 0x8c, 0xf8, 0xbe,
  0xdb, 0xbd, 0x28, 0x3f, 0x19, 0x6e, 0xce, 0xbe, 0x90, 0x39, 0xd7, 0x3e,
  0x0a, 0x2e, 0x22, 0xbb, 0x70, 0xad, 0xbb, 0xbe, 0xc3, 0xf1, 0xda, 0x3e,
  0xfc, 0x2e, 0x0f, 0x3f, 0xa2, 0xa7, 0x26, 0x3f, 0x17, 0x26, 0x0d, 0x3f,
  0xfb, 0xa9, 0x1a, 0xbf, 0x8a, 0x62, 0x69, 0xbe, 0x26, 0xc6, 0x87, 0x3e,
  0x35, 0x63, 0xa3, 0x3f, 0x2b, 0xce, 0xf0, 0xbc, 0x3c, 0x32, 0x07, 0x3f,
  0x6d, 0xb1, 0xf2, 0xbe, 0xf4, 0xbd, 0xa2, 0x3d, 0xc1, 0x24, 0xeb, 0xbe,
  0xc0, 0x99, 0x02, 0xbf, 0x5c, 0x11, 0x55, 0xbe, 0x8f, 0x23, 0xc5, 0x3e,
  0x90, 0x14, 0x7b, 0x3d, 0xd3, 0xe7, 0x65, 0x3e, 0x60, 0xa6, 0x54, 0xbf,
  0x9d, 0x1f, 0xec, 0xbd, 0xda, 0x69, 0x9b, 0x3c, 0x87, 0x88, 0x06, 0xbf,
  0x5d, 0x43, 0xb7, 0x3e, 0xd0, 0xe7, 0x32, 0xbf, 0xc9, 0x61, 0xb1, 0x3d,
  0x69, 0x25, 0x18, 0x3f, 0x29, 0xc8, 0x93, 0x3d, 0xaa, 0xf9, 0x8f, 0xbf,
  0x2a, 0xf0, 0xf5, 0xbe, 0x53, 0x92, 0xd9, 0x3e, 0x39, 0xab, 0x98, 0x3d,
  0x3e, 0x72, 0xd3, 0x3e, 0xdd, 0xb6, 0x52, 0x3e, 0xb2, 0xa7, 0x82, 0xbf,
  0x27, 0xea, 0x82, 0xbf, 0x2f, 0x4a, 0x88, 0xbf, 0x95, 0x52, 0xfe, 0xbd,
  0xae, 0x0e, 0xce, 0x3d, 0x77, 0xa5, 0x02, 0x3f, 0x66, 0xe7, 0x57, 0xbf,
  0x5a, 0xfb, 0xff, 0xff, 0x04, 0x00, 0x00, 0x00, 0x10, 0x00, 0x00, 0x00,
  0x7b, 0xe3, 0x95, 0x3f, 0xb0, 0xaa, 0x14, 0xc0, 0x23, 0x6b, 0x7e, 0x3e,
  0x96, 0xdf, 0xa5, 0x3f, 0x76, 0xfb, 0xff, 0xff, 0x04, 0x00, 0x00, 0x00,
  0x40, 0x00, 0x00, 0x00, 0x0a, 0x3c, 0xce, 0xbd, 0x57, 0xa4, 0xf8, 0x3f,
  0xa6, 0x27, 0x55, 0xbd, 0xa5, 0xf5, 0x21, 0x3f, 0xf0, 0xc6, 0x07, 0xbe,
  0xc5, 0x61, 0x9a, 0x3f, 0xa3, 0x46, 0x5a, 0xbd, 0x77, 0x82, 0xe0, 0xbd,
  0x54, 0x43, 0xd9, 0xbf, 0xb1, 0xa8, 0x12, 0xc0, 0xcc, 0x54, 0x13, 0x3f,
  0x1d, 0x62, 0xe6, 0xbf, 0x95, 0xd3, 0x16, 0x40, 0xba, 0x77, 0xd4, 0x3f,
  0x9d, 0x2a, 0x29, 0xbc, 0x16, 0x33, 0x78, 0x3e, 0xc2, 0xfb, 0xff, 0xff,
  0x04, 0x00, 0x00, 0x00, 0x80, 0x00, 0x00, 0x00, 0xc0, 0x35, 0x0a, 0xc0,
  0x16, 0x62, 0x97, 0xbd, 0x44, 0x1d, 0xfc, 0xbf, 0x38, 0xf3, 0x87, 0xbc,
  0x9c, 0x12, 0x24, 0x40, 0x00, 0x00, 0x00, 0x00, 0x32, 0x7f, 0xe6, 0xbd,
  0xfe, 0xed, 0xd7, 0xbd, 0xa0, 0x75, 0x00, 0xc0, 0xca, 0x66, 0x72, 0xbd,
  0x44, 0x18, 0x38, 0x3f, 0x33, 0x0f, 0xeb, 0xbd, 0x89, 0x3e, 0xc4, 0x3b,
  0x70, 0x0f, 0xd5, 0x3c, 0x76, 0xc3, 0x35, 0xbd, 0x00, 0x00, 0x00, 0x00,
  0xca, 0x84, 0xaa, 0xbc, 0x11, 0x2a, 0x7a, 0x2a, 0x34, 0xed, 0x86, 0x3e,
  0xc1, 0x4b, 0x11, 0xc0, 0x5e, 0x36, 0x30, 0xba, 0xae, 0xf5, 0xc5, 0xbc,
  0x77, 0xec, 0x19, 0x40, 0x38, 0xe2, 0x98, 0xbf, 0xdb, 0x8a, 0xbc, 0xbe,
  0x52, 0x34, 0x62, 0xbd, 0x69, 0x1f, 0xbb, 0xbe, 0x58, 0xe5, 0x6f, 0xbf,
  0x2a, 0x85, 0x25, 0x40, 0x30, 0x07, 0x2b, 0x3e, 0x5a, 0x77, 0x7d, 0x3d,
  0x41, 0x91, 0xb5, 0x3f, 0x4e, 0xfc, 0xff, 0xff, 0x04, 0x00, 0x00, 0x00,
  0x00, 0x01, 0x00, 0x00, 0x54, 0x32, 0x51, 0x3e, 0x8c, 0x58, 0xef, 0xbf,
  0x0d, 0x23, 0x0f, 0xc0, 0xee, 0xc5, 0xf5, 0x3f, 0x0b, 0x7b, 0x93, 0x3e,
  0x35, 0xc1, 0xe5, 0x3f, 0x16, 0x4f, 0x8a, 0xbe, 0x9e, 0x5a, 0x9b, 0x3f,
  0x77, 0x7f, 0x50, 0x3f, 0xbb, 0x70, 0x27, 0x40, 0xd5, 0x4e, 0xcf, 0x3c,
  0x1f, 0x1a, 0xb0, 0x3f, 0x4e, 0x01, 0xc0, 0x3e, 0x76, 0x02, 0x9c, 0xbf,
  0xcb, 0xb9, 0xf0, 0x3e, 0xaa, 0x9b, 0xb0, 0xbe, 0xe7, 0x3d, 0x3b, 0x3e,
  0x2a, 0x14, 0x7d, 0x3f, 0x88, 0xf3, 0x10, 0xc0, 0xdf, 0x45, 0xb8, 0x3f,
  0x8b, 0xdb, 0x08, 0x3e, 0x46, 0x38, 0xcd, 0xbd, 0x17, 0x4d, 0x00, 0x40,
  0xa7, 0xdb, 0x17, 0xc0, 0x15, 0x8f, 0x1c, 0xc0, 0xec, 0x00, 0xcc, 0x3f,
  0x12, 0x71, 0x2b, 0xc0, 0x69, 0x52, 0xb5, 0x3f, 0xa6, 0xad, 0x1c, 0xc0,
  0x6e, 0xe0, 0xdb, 0x3b, 0x21, 0x6e, 0x18, 0xc0, 0x28, 0xbb, 0x02, 0x40,
  0xdb, 0x9f, 0xc0, 0x3f, 0x2d, 0xae, 0x01, 0xc0, 0x46, 0xbd, 0x28, 0xbf,
  0xab, 0x9b, 0x1b, 0xc0, 0xb5, 0x7f, 0x18, 0x40, 0x6c, 0x60, 0x03, 0x40,
  0x1f, 0xcc, 0x1b, 0x40, 0xd7, 0x05, 0x96, 0x3e, 0xc2, 0x7a, 0x1a, 0xc0,
  0x77, 0x11, 0x1d, 0xc0, 0xbd, 0x29, 0x15, 0x40, 0x1b, 0x28, 0xdf, 0x3f,
  0x87, 0xec, 0xba, 0x3c, 0x2f, 0x17, 0x0c, 0xc0, 0x2f, 0x1e, 0x16, 0x40,
  0x93, 0x9a, 0x19, 0x40, 0xbb, 0xd8, 0xc2, 0x3e, 0xc9, 0x88, 0xed, 0x3c,
  0x1e, 0x08, 0x07, 0xc0, 0xa5, 0xb4, 0x94, 0xbf, 0x0a, 0x51, 0x14, 0xc0,
  0x2e, 0x66, 0xf6, 0xbf, 0xfa, 0x94, 0xf1, 0x3f, 0x7b, 0x28, 0xa3, 0x3f,
  0x87, 0xc1, 0x25, 0xc0, 0x67, 0xb4, 0xab, 0x3f, 0x12, 0x5a, 0x74, 0xbe,
  0xb3, 0x21, 0x73, 0xbf, 0x8c, 0x53, 0x18, 0xc0, 0xca, 0x24, 0x6e, 0x3e,
  0x4c, 0xe9, 0x1a, 0xc0, 0xfb, 0x8b, 0x18, 0x40, 0x5a, 0xfd, 0xff, 0xff,
  0x04, 0x00, 0x00, 0x00, 0x00, 0x02, 0x00, 0x00, 0x7c, 0x0e, 0x42, 0xbd,
  0xb9, 0x8c, 0x96, 0xbe, 0xc5, 0x2f, 0x00, 0xbe, 0xae, 0x6c, 0xd3, 0x3d,
  0xbd, 0x78, 0x2d, 0xbe, 0x26, 0x7f, 0x5b, 0x3e, 0x4a, 0x97, 0x34, 0xbd,
  0x19, 0xb3, 0xf5, 0x3c, 0x99, 0x19, 0xd9, 0xbe, 0x82, 0x4d, 0x9e, 0xbc,
  0x58, 0x2a, 0x3f, 0xbe, 0x1c, 0xee, 0xbf, 0x3d, 0xbc, 0xa3, 0x80, 0x3e,
  0xcb, 0x4b, 0x1c, 0xbe, 0xc4, 0x6e, 0x62, 0xbd, 0x89, 0x25, 0xd0, 0x3d,
  0x5f, 0x66, 0xee, 0x3d, 0x8a, 0x94, 0xba, 0xbe, 0x8d, 0x97, 0xb6, 0x3c,
  0x39, 0x73, 0xba, 0xbc, 0xdb, 0x3f, 0xe1, 0xbd, 0x5a, 0x7a, 0xf3, 0xbd,
  0x41, 0x11, 0xde, 0xbd, 0x0d, 0xab, 0x6a, 0xbd, 0xaf, 0xcd, 0x5c, 0x3e,
  0xd9, 0xd6, 0x61, 0xbe, 0xbd, 0xe7, 0x95, 0x3e, 0x70, 0x17, 0x0c, 0xbe,
  0xf5, 0x41, 0x43, 0x3e, 0xb5, 0xd6, 0xf3, 0xbe, 0x1f, 0x2f, 0x98, 0x3c,
  0x94, 0xb3, 0x29, 0xbe, 0xfd, 0x08, 0xee, 0xbd, 0xc8, 0x5f, 0x95, 0xbe,
  0x6a, 0x0b, 0xae, 0xbd, 0x67, 0xa1, 0x38, 0xbd, 0xc4, 0x90, 0x83, 0x3c,
  0xc1, 0x2e, 0xe7, 0x3d, 0xe1, 0xb6, 0x91, 0xbd, 0xe5, 0xc4, 0x09, 0xbd,
  0x6e, 0x7a, 0x6b, 0xbe, 0xff, 0x68, 0x9b, 0xbe, 0x0a, 0xbe, 0x9e, 0xbd,
  0x84, 0xa9, 0x53, 0xbe, 0xff, 0xc0, 0x07, 0xbe, 0x7d, 0x59, 0xa1, 0x3d,
  0x17, 0x26, 0xd1, 0x3c, 0x9e, 0x73, 0x21, 0x3d, 0xf3, 0x3c, 0xc4, 0xbd,
  0x0a, 0xf3, 0x0b, 0x3e, 0x07, 0xa6, 0xc5, 0xbc, 0xa6, 0x26, 0x56, 0xbd,
  0x40, 0xfe, 0xa1, 0x3d, 0x8f, 0x43, 0x2e, 0x3e, 0x86, 0x80, 0x36, 0xbd,
  0x23, 0x9d, 0x5b, 0xbd, 0xba, 0xb6, 0x1e, 0x3b, 0x37, 0x54, 0x09, 0x3e,
  0xcf, 0xb2, 0x0b, 0x3d, 0x77, 0xa6, 0x50, 0xbe, 0x4c, 0x6f, 0x8b, 0x3d,
  0x70, 0x4b, 0xf2, 0x3c, 0x16, 0xcd, 0x00, 0xbe, 0x32, 0x6a, 0x2f, 0x3e,
  0x21, 0xfd, 0x22, 0xbd, 0x62, 0xb9, 0xdf, 0xbc, 0x22, 0xa5, 0x2f, 0xbe,
  0x09, 0x67, 0x14, 0x3e, 0x27, 0x31, 0x5d, 0xbe, 0xad, 0x8d, 0x34, 0x3b,
  0xd1, 0xd1, 0x8f, 0x3d, 0x96, 0xfd, 0x0b, 0x3d, 0xda, 0x01, 0x10, 0x3e,
  0xd0, 0xf0, 0x73, 0xbd, 0xc8, 0xcb, 0x53, 0xbd, 0x77, 0x11, 0xa7, 0x3d,
  0x03, 0x61, 0x9c, 0xbc, 0x67, 0xe1, 0xab, 0xbb, 0xc4, 0x25, 0xa5, 0x3d,
  0xac, 0xea, 0xcc, 0xbe, 0xcf, 0x6b, 0xa8, 0x3d, 0x54, 0x8b, 0x94, 0x3c,
  0x2b, 0x53, 0x4f, 0xbd, 0x69, 0xbc, 0xb5, 0x3d, 0xdb, 0xad, 0xc1, 0xbc,
  0xf1, 0xe0, 0xbe, 0x3d, 0x7c, 0x31, 0x22, 0xbd, 0xb9, 0x73, 0x0b, 0xbc,
  0x0e, 0x30, 0x8f, 0xbe, 0x3a, 0x70, 0xbb, 0xbd, 0x8b, 0xc4, 0x9d, 0x3d,
  0xa3, 0xce, 0x8d, 0x3c, 0xea, 0xb2, 0xe3, 0xbc, 0x53, 0xe5, 0x42, 0x3b,
  0x53, 0x52, 0x3c, 0x3e, 0xe7, 0x25, 0x24, 0x3e, 0x93, 0x90, 0x92, 0x3d,
  0x85, 0xe6, 0xbe, 0xbe, 0x95, 0x64, 0xae, 0x3d, 0x03, 0x1e, 0xad, 0xbe,
  0xa8, 0x22, 0x3b, 0x3c, 0xa5, 0xda, 0xd7, 0x3d, 0x5f, 0x85, 0xb6, 0xbe,
  0x45, 0x9a, 0x50, 0x3e, 0x96, 0xa9, 0xca, 0x3d, 0x89, 0x7d, 0xc6, 0x3c,
  0x00, 0x96, 0xf9, 0x3d, 0xdf, 0x22, 0xec, 0x3b, 0x1e, 0xe2, 0x29, 0xbd,
  0x59, 0x73, 0xdf, 0x3d, 0xbb, 0x87, 0x56, 0x3e, 0x98, 0x9e, 0x17, 0xbe,
  0xd4, 0xca, 0x00, 0x3d, 0x14, 0x03, 0x1e, 0x3d, 0x30, 0x8f, 0xe5, 0xbc,
  0xd8, 0x8d, 0x6b, 0xbd, 0xf2, 0xce, 0x2e, 0x3d, 0x1b, 0xa3, 0x86, 0xbe,
  0x71, 0xb8, 0x67, 0x3e, 0xf7, 0x92, 0x3d, 0xbe, 0x7f, 0xb0, 0x47, 0x3d,
  0x22, 0x66, 0x6c, 0x3d, 0xb2, 0x57, 0x9b, 0xc0, 0x92, 0x4c, 0x02, 0x3d,
  0x65, 0x13, 0x5d, 0xbb, 0x87, 0x5f, 0x29, 0x3d, 0x2b, 0x78, 0x61, 0xbd,
  0x04, 0x58, 0xf7, 0x3d, 0x60, 0xf7, 0xff, 0xff, 0x64, 0xf7, 0xff, 0xff,
  0x0f, 0x00, 0x00, 0x00, 0x4d, 0x4c, 0x49, 0x52, 0x20, 0x43, 0x6f, 0x6e,
  0x76, 0x65, 0x72, 0x74, 0x65, 0x64, 0x2e, 0x00, 0x01, 0x00, 0x00, 0x00,
  0x14, 0x00, 0x00, 0x00, 0x00, 0x00, 0x0e, 0x00, 0x18, 0x00, 0x14, 0x00,
  0x10, 0x00, 0x0c, 0x00, 0x08, 0x00, 0x04, 0x00, 0x0e, 0x00, 0x00, 0x00,
  0x14, 0x00, 0x00, 0x00, 0x1c, 0x00, 0x00, 0x00, 0x78, 0x01, 0x00, 0x00,
  0x7c, 0x01, 0x00, 0x00, 0x80, 0x01, 0x00, 0x00, 0x04, 0x00, 0x00, 0x00,
  0x6d, 0x61, 0x69, 0x6e, 0x00, 0x00, 0x00, 0x00, 0x05, 0x00, 0x00, 0x00,
  0x20, 0x01, 0x00, 0x00, 0xcc, 0x00, 0x00, 0x00, 0x84, 0x00, 0x00, 0x00,
  0x50, 0x00, 0x00, 0x00, 0x14, 0x00, 0x00, 0x00, 0x00, 0x00, 0x0e, 0x00,
  0x1a, 0x00, 0x14, 0x00, 0x10, 0x00, 0x0c, 0x00, 0x0b, 0x00, 0x04, 0x00,
  0x0e, 0x00, 0x00, 0x00, 0x1c, 0x00, 0x00, 0x00, 0x00, 0x00, 0x00, 0x09,
  0x1c, 0x00, 0x00, 0x00, 0x20, 0x00, 0x00, 0x00, 0x01, 0x00, 0x00, 0x00,
  0x00, 0x00, 0x06, 0x00, 0x08, 0x00, 0x04, 0x00, 0x06, 0x00, 0x00, 0x00,
  0x00, 0x00, 0x80, 0x3f, 0x01, 0x00, 0x00, 0x00, 0x0d, 0x00, 0x00, 0x00,
  0x01, 0x00, 0x00, 0x00, 0x0c, 0x00, 0x00, 0x00, 0x9a, 0xff, 0xff, 0xff,
  0x10, 0x00, 0x00, 0x00, 0x00, 0x00, 0x00, 0x08, 0x0c, 0x00, 0x00, 0x00,
  0x10, 0x00, 0x00, 0x00, 0x2c, 0xf8, 0xff, 0xff, 0x01, 0x00, 0x00, 0x00,
  0x0c, 0x00, 0x00, 0x00, 0x03, 0x00, 0x00, 0x00, 0x0b, 0x00, 0x00, 0x00,
  0x06, 0x00, 0x00, 0x00, 0x05, 0x00, 0x00, 0x00, 0xca, 0xff, 0xff, 0xff,
  0x10, 0x00, 0x00, 0x00, 0x00, 0x00, 0x00, 0x08, 0x10, 0x00, 0x00, 0x00,
  0x14, 0x00, 0x00, 0x00, 0x6a, 0xff, 0xff, 0xff, 0x00, 0x00, 0x00, 0x01,
  0x01, 0x00, 0x00, 0x00, 0x0b, 0x00, 0x00, 0x00, 0x03, 0x00, 0x00, 0x00,
  0x0a, 0x00, 0x00, 0x00, 0x07, 0x00, 0x00, 0x00, 0x04, 0x00, 0x00, 0x00,
  0x00, 0x00, 0x0e, 0x00, 0x14, 0x00, 0x00, 0x00, 0x10, 0x00, 0x0c, 0x00,
  0x0b, 0x00, 0x04, 0x00, 0x0e, 0x00, 0x00, 0x00, 0x1c, 0x00, 0x00, 0x00,
  0x00, 0x00, 0x00, 0x08, 0x1c, 0x00, 0x00, 0x00, 0x20, 0x00, 0x00, 0x00,
  0x0c, 0x00, 0x08, 0x00, 0x07, 0x00, 0x00, 0x00, 0x00, 0x00, 0x06, 0x00,
  0x0c, 0x00, 0x00, 0x00, 0x00, 0x00, 0x01, 0x01, 0x01, 0x00, 0x00, 0x00,
  0x0a, 0x00, 0x00, 0x00, 0x03, 0x00, 0x00, 0x00, 0x09, 0x00, 0x00, 0x00,
  0x08, 0x00, 0x00, 0x00, 0x03, 0x00, 0x00, 0x00, 0x00, 0x00, 0x0e, 0x00,
  0x16, 0x00, 0x00, 0x00, 0x10, 0x00, 0x0c, 0x00, 0x0b, 0x00, 0x04, 0x00,
  0x0e, 0x00, 0x00, 0x00, 0x18, 0x00, 0x00, 0x00, 0x00, 0x00, 0x00, 0x08,
  0x18, 0x00, 0x00, 0x00, 0x1c, 0x00, 0x00, 0x00, 0x00, 0x00, 0x06, 0x00,
  0x08, 0x00, 0x07, 0x00, 0x06, 0x00, 0x00, 0x00, 0x00, 0x00, 0x00, 0x01,
  0x01, 0x00, 0x00, 0x00, 0x09, 0x00, 0x00, 0x00, 0x03, 0x00, 0x00, 0x00,
  0x00, 0x00, 0x00, 0x00, 0x01, 0x00, 0x00, 0x00, 0x02, 0x00, 0x00, 0x00,
  0x01, 0x00, 0x00, 0x00, 0x0d, 0x00, 0x00, 0x00, 0x01, 0x00, 0x00, 0x00,
  0x00, 0x00, 0x00, 0x00, 0x0e, 0x00, 0x00, 0x00, 0xac, 0x06, 0x00, 0x00,
  0x54, 0x06, 0x00, 0x00, 0x00, 0x06, 0x00, 0x00, 0xc4, 0x05, 0x00, 0x00,
  0x88, 0x05, 0x00, 0x00, 0x4c, 0x05, 0x00, 0x00, 0x0c, 0x05, 0x00, 0x00,
  0xcc, 0x04, 0x00, 0x00, 0xe8, 0x02, 0x00, 0x00, 0x2c, 0x02, 0x00, 0x00,
  0x88, 0x01, 0x00, 0x00, 0xe4, 0x00, 0x00, 0x00, 0x60, 0x00, 0x00, 0x00,
  0x04, 0x00, 0x00, 0x00, 0xa2, 0xf9, 0xff, 0xff, 0x00, 0x00, 0x00, 0x01,
  0x14, 0x00, 0x00, 0x00, 0x1c, 0x00, 0x00, 0x00, 0x1c, 0x00, 0x00, 0x00,
  0x0e, 0x00, 0x00, 0x00, 0x34, 0x00, 0x00, 0x00, 0x02, 0x00, 0x00, 0x00,
  0xff, 0xff, 0xff, 0xff, 0x04, 0x00, 0x00, 0x00, 0x8c, 0xf9, 0xff, 0xff,
  0x1b, 0x00, 0x00, 0x00, 0x53, 0x74, 0x61, 0x74, 0x65, 0x66, 0x75, 0x6c,
  0x50, 0x61, 0x72, 0x74, 0x69, 0x74, 0x69, 0x6f, 0x6e, 0x65, 0x64, 0x43,
  0x61, 0x6c, 0x6c, 0x5f, 0x31, 0x3a, 0x30, 0x00, 0x02, 0x00, 0x00, 0x00,
  0x01, 0x00, 0x00, 0x00, 0x04, 0x00, 0x00, 0x00, 0xfa, 0xf9, 0xff, 0xff,
  0x00, 0x00, 0x00, 0x01, 0x14, 0x00, 0x00, 0x00, 0x1c, 0x00, 0x00, 0x00,
  0x1c, 0x00, 0x00, 0x00, 0x0d, 0x00, 0x00, 0x00, 0x5c, 0x00, 0x00, 0x00,
  0x02, 0x00, 0x00, 0x00, 0xff, 0xff, 0xff, 0xff, 0x04, 0x00, 0x00, 0x00,
  0xe4, 0xf9, 0xff, 0xff, 0x42, 0x00, 0x00, 0x00, 0x73, 0x65, 0x71, 0x75,
  0x65, 0x6e, 0x74, 0x69, 0x61, 0x6c, 0x5f, 0x34, 0x5f, 0x31, 0x2f, 0x64,
  0x65, 0x6e, 0x73, 0x65, 0x5f, 0x31, 0x38, 0x5f, 0x31, 0x2f, 0x4d, 0x61,
  0x74, 0x4d, 0x75, 0x6c, 0x3b, 0x73, 0x65, 0x71, 0x75, 0x65, 0x6e, 0x74,
  0x69, 0x61, 0x6c, 0x5f, 0x34, 0x5f, 0x31, 0x2f, 0x64, 0x65, 0x6e, 0x73,
  0x65, 0x5f, 0x31, 0x38, 0x5f, 0x31, 0x2f, 0x42, 0x69, 0x61, 0x73, 0x41,
  0x64, 0x64, 0x00, 0x00, 0x02, 0x00, 0x00, 0x00, 0x01, 0x00, 0x00, 0x00,
  0x04, 0x00, 0x00, 0x00, 0x7a, 0xfa, 0xff, 0xff, 0x00, 0x00, 0x00, 0x01,
  0x14, 0x00, 0x00, 0x00, 0x1c, 0x00, 0x00, 0x00, 0x1c, 0x00, 0x00, 0x00,
  0x0c, 0x00, 0x00, 0x00, 0x7c, 0x00, 0x00, 0x00, 0x02, 0x00, 0x00, 0x00,
  0xff, 0xff, 0xff, 0xff, 0x10, 0x00, 0x00, 0x00, 0x64, 0xfa, 0xff, 0xff,
  0x61, 0x00, 0x00, 0x00, 0x73, 0x65, 0x71, 0x75, 0x65, 0x6e, 0x74, 0x69,
  0x61, 0x6c, 0x5f, 0x34, 0x5f, 0x31, 0x2f, 0x64, 0x65, 0x6e, 0x73, 0x65,
  0x5f, 0x31, 0x37, 0x5f, 0x31, 0x2f, 0x4d, 0x61, 0x74, 0x4d, 0x75, 0x6c,
  0x3b, 0x73, 0x65, 0x71, 0x75, 0x65, 0x6e, 0x74, 0x69, 0x61, 0x6c, 0x5f,
  0x34, 0x5f, 0x31, 0x2f, 0x64, 0x65, 0x6e, 0x73, 0x65, 0x5f, 0x31, 0x37,
  0x5f, 0x31, 0x2f, 0x52, 0x65, 0x6c, 0x75, 0x3b, 0x73, 0x65, 0x71, 0x75,
  0x65, 0x6e, 0x74, 0x69, 0x61, 0x6c, 0x5f, 0x34, 0x5f, 0x31, 0x2f, 0x64,
  0x65, 0x6e, 0x73, 0x65, 0x5f, 0x31, 0x37, 0x5f, 0x31, 0x2f, 0x42, 0x69,
  0x61, 0x73, 0x41, 0x64, 0x64, 0x00, 0x00, 0x00, 0x02, 0x00, 0x00, 0x00,
  0x01, 0x00, 0x00, 0x00, 0x10, 0x00, 0x00, 0x00, 0x1a, 0xfb, 0xff, 0xff,
  0x00, 0x00, 0x00, 0x01, 0x14, 0x00, 0x00, 0x00, 0x1c, 0x00, 0x00, 0x00,
  0x1c, 0x00, 0x00, 0x00, 0x0b, 0x00, 0x00, 0x00, 0x7c, 0x00, 0x00, 0x00,
  0x02, 0x00, 0x00, 0x00, 0xff, 0xff, 0xff, 0xff, 0x20, 0x00, 0x00, 0x00,
  0x04, 0xfb, 0xff, 0xff, 0x61, 0x00, 0x00, 0x00, 0x73, 0x65, 0x71, 0x75,
  0x65, 0x6e, 0x74, 0x69, 0x61, 0x6c, 0x5f, 0x34, 0x5f, 0x31, 0x2f, 0x64,
  0x65, 0x6e, 0x73, 0x65, 0x5f, 0x31, 0x36, 0x5f, 0x31, 0x2f, 0x4d, 0x61,
  0x74, 0x4d, 0x75, 0x6c, 0x3b, 0x73, 0x65, 0x71, 0x75, 0x65, 0x6e, 0x74,
  0x69, 0x61, 0x6c, 0x5f, 0x34, 0x5f, 0x31, 0x2f, 0x64, 0x65, 0x6e, 0x73,
  0x65, 0x5f, 0x31, 0x36, 0x5f, 0x31, 0x2f, 0x52, 0x65, 0x6c, 0x75, 0x3b,
  0x73, 0x65, 0x71, 0x75, 0x65, 0x6e, 0x74, 0x69, 0x61, 0x6c, 0x5f, 0x34,
  0x5f, 0x31, 0x2f, 0x64, 0x65, 0x6e, 0x73, 0x65, 0x5f, 0x31, 0x36, 0x5f,
  0x31, 0x2f, 0x42, 0x69, 0x61, 0x73, 0x41, 0x64, 0x64, 0x00, 0x00, 0x00,
  0x02, 0x00, 0x00, 0x00, 0x01, 0x00, 0x00, 0x00, 0x20, 0x00, 0x00, 0x00,
  0xba, 0xfb, 0xff, 0xff, 0x00, 0x00, 0x00, 0x01, 0x14, 0x00, 0x00, 0x00,
  0x1c, 0x00, 0x00, 0x00, 0x1c, 0x00, 0x00, 0x00, 0x0a, 0x00, 0x00, 0x00,
  0x7c, 0x00, 0x00, 0x00, 0x02, 0x00, 0x00, 0x00, 0xff, 0xff, 0xff, 0xff,
  0x40, 0x00, 0x00, 0x00, 0xa4, 0xfb, 0xff, 0xff, 0x61, 0x00, 0x00, 0x00,
  0x73, 0x65, 0x71, 0x75, 0x65, 0x6e, 0x74, 0x69, 0x61, 0x6c, 0x5f, 0x34,
  0x5f, 0x31, 0x2f, 0x64, 0x65, 0x6e, 0x73, 0x65, 0x5f, 0x31, 0x35, 0x5f,
  0x31, 0x2f, 0x4d, 0x61, 0x74, 0x4d, 0x75, 0x6c, 0x3b, 0x73, 0x65, 0x71,
  0x75, 0x65, 0x6e, 0x74, 0x69, 0x61, 0x6c, 0x5f, 0x34, 0x5f, 0x31, 0x2f,
  0x64, 0x65, 0x6e, 0x73, 0x65, 0x5f, 0x31, 0x35, 0x5f, 0x31, 0x2f, 0x52,
  0x65, 0x6c, 0x75, 0x3b, 0x73, 0x65, 0x71, 0x75, 0x65, 0x6e, 0x74, 0x69,
  0x61, 0x6c, 0x5f, 0x34, 0x5f, 0x31, 0x2f, 0x64, 0x65, 0x6e, 0x73, 0x65,
  0x5f, 0x31, 0x35, 0x5f, 0x31, 0x2f, 0x42, 0x69, 0x61, 0x73, 0x41, 0x64,
  0x64, 0x00, 0x00, 0x00, 0x02, 0x00, 0x00, 0x00, 0x01, 0x00, 0x00, 0x00,
  0x40, 0x00, 0x00, 0x00, 0x00, 0x00, 0x16, 0x00, 0x1c, 0x00, 0x18, 0x00,
  0x17, 0x00, 0x10, 0x00, 0x0c, 0x00, 0x08, 0x00, 0x00, 0x00, 0x00, 0x00,
  0x00, 0x00, 0x07, 0x00, 0x16, 0x00, 0x00, 0x00, 0x00, 0x00, 0x00, 0x01,
  0x20, 0x00, 0x00, 0x00, 0xb0, 0x01, 0x00, 0x00, 0x09, 0x00, 0x00, 0x00,
  0x00, 0x00, 0x00, 0x09, 0xbc, 0x01, 0x00, 0x00, 0x0c, 0x00, 0x0c, 0x00,
  0x00, 0x00, 0x00, 0x00, 0x08, 0x00, 0x04, 0x00, 0x0c, 0x00, 0x00, 0x00,
  0x08, 0x00, 0x00, 0x00, 0x08, 0x01, 0x00, 0x00, 0x20, 0x00, 0x00, 0x00,
  0x00, 0x00, 0x00, 0x00, 0x00, 0x00, 0x00, 0x00, 0x00, 0x00, 0x00, 0x00,
  0x00, 0x00, 0x00, 0x00, 0x00, 0x00, 0x00, 0x00, 0x00, 0x00, 0x00, 0x00,
  0x00, 0x00, 0x00, 0x00, 0x00, 0x00, 0x00, 0x00, 0x00, 0x00, 0x00, 0x00,
  0x00, 0x00, 0x00, 0x00, 0x00, 0x00, 0x00, 0x00, 0x00, 0x00, 0x00, 0x00,
  0x00, 0x00, 0x00, 0x00, 0x00, 0x00, 0x00, 0x00, 0x00, 0x00, 0x00, 0x00,
  0x00, 0x00, 0x00, 0x00, 0x00, 0x00, 0x00, 0x00, 0x00, 0x00, 0x00, 0x00,
  0x00, 0x00, 0x00, 0x00, 0x00, 0x00, 0x00, 0x00, 0x00, 0x00, 0x00, 0x00,
  0x00, 0x00, 0x00, 0x00, 0x00, 0x00, 0x00, 0x00, 0x00, 0x00, 0x00, 0x00,
  0x00, 0x00, 0x00, 0x00, 0x00, 0x00, 0x00, 0x00, 0x00, 0x00, 0x00, 0x00,
  0x00, 0x00, 0x00, 0x00, 0x00, 0x00, 0x00, 0x00, 0x00, 0x00, 0x00, 0x00,
  0x00, 0x00, 0x00, 0x00, 0x00, 0x00, 0x00, 0x00, 0x00, 0x00, 0x00, 0x00,
  0x00, 0x00, 0x00, 0x00, 0x00, 0x00, 0x00, 0x00, 0x00, 0x00, 0x00, 0x00,
  0x00, 0x00, 0x00, 0x00, 0x00, 0x00, 0x00, 0x00, 0x00, 0x00, 0x00, 0x00,
  0x00, 0x00, 0x00, 0x00, 0x00, 0x00, 0x00, 0x00, 0x00, 0x00, 0x00, 0x00,
  0x00, 0x00, 0x00, 0x00, 0x00, 0x00, 0x00, 0x00, 0x00, 0x00, 0x00, 0x00,
  0x00, 0x00, 0x00, 0x00, 0x00, 0x00, 0x00, 0x00, 0x00, 0x00, 0x00, 0x00,
  0x00, 0x00, 0x00, 0x00, 0x00, 0x00, 0x00, 0x00, 0x00, 0x00, 0x00, 0x00,
  0x00, 0x00, 0x00, 0x00, 0x00, 0x00, 0x00, 0x00, 0x00, 0x00, 0x00, 0x00,
  0x00, 0x00, 0x00, 0x00, 0x00, 0x00, 0x00, 0x00, 0x00, 0x00, 0x00, 0x00,
  0x00, 0x00, 0x00, 0x00, 0x00, 0x00, 0x00, 0x00, 0x00, 0x00, 0x00, 0x00,
  0x00, 0x00, 0x00, 0x00, 0x00, 0x00, 0x00, 0x00, 0x00, 0x00, 0x00, 0x00,
  0x00, 0x00, 0x00, 0x00, 0x20, 0x00, 0x00, 0x00, 0xf0, 0xa5, 0xe0, 0x3b,
  0x5e, 0xdb, 0x09, 0x3b, 0x34, 0x39, 0x2c, 0x3c, 0x25, 0x13, 0x00, 0x3b,
  0xd8, 0x6c, 0xc3, 0x3b, 0xd0, 0xed, 0xfe, 0x3a, 0xfc, 0x05, 0x24, 0x3c,
  0xef, 0x7a, 0x3b, 0x3b, 0x45, 0x6f, 0xc9, 0x3b, 0x8f, 0xc3, 0x22, 0x3b,
  0x56, 0xc0, 0x1f, 0x3c, 0x39, 0x47, 0x06, 0x3b, 0xeb, 0x5b, 0x08, 0x3c,
  0x86, 0x59, 0x32, 0x3b, 0x36, 0x81, 0x12, 0x3b, 0x53, 0xbb, 0xf0, 0x3a,
  0x75, 0x1f, 0x03, 0x3b, 0x51, 0x4c, 0xff, 0x3a, 0xd7, 0xd1, 0x5c, 0x3c,
  0x10, 0x67, 0x8e, 0x3b, 0x07, 0x63, 0x8a, 0x3b, 0x61, 0x4e, 0x0b, 0x3b,
  0x4f, 0xf9, 0xbd, 0x3b, 0xad, 0xc7, 0x80, 0x3c, 0x36, 0xac, 0x02, 0x3c,
  0x9e, 0x59, 0x08, 0x3b, 0xef, 0x08, 0x4b, 0x3c, 0x67, 0xbb, 0x5e, 0x3b,
  0xac, 0xc5, 0x34, 0x3c, 0xf7, 0x11, 0xf5, 0x3b, 0x41, 0xcc, 0x76, 0x3b,
  0xbe, 0xc4, 0x0e, 0x3c, 0x11, 0x00, 0x00, 0x00, 0x74, 0x66, 0x6c, 0x2e,
  0x70, 0x73, 0x65, 0x75, 0x64, 0x6f, 0x5f, 0x71, 0x63, 0x6f, 0x6e, 0x73,
  0x74, 0x00, 0x00, 0x00, 0x02, 0x00, 0x00, 0x00, 0x20, 0x00, 0x00, 0x00,
  0x40, 0x00, 0x00, 0x00, 0xa6, 0xfe, 0xff, 0xff, 0x00, 0x00, 0x00, 0x01,
  0x10, 0x00, 0x00, 0x00, 0x10, 0x00, 0x00, 0x00, 0x08, 0x00, 0x00, 0x00,
  0x1c, 0x00, 0x00, 0x00, 0x2c, 0xfe, 0xff, 0xff, 0x0f, 0x00, 0x00, 0x00,
  0x61, 0x72, 0x69, 0x74, 0x68, 0x2e, 0x63, 0x6f, 0x6e, 0x73, 0x74, 0x61,
  0x6e, 0x74, 0x36, 0x00, 0x02, 0x00, 0x00, 0x00, 0x10, 0x00, 0x00, 0x00,
  0x20, 0x00, 0x00, 0x00, 0xe2, 0xfe, 0xff, 0xff, 0x00, 0x00, 0x00, 0x01,
  0x10, 0x00, 0x00, 0x00, 0x10, 0x00, 0x00, 0x00, 0x07, 0x00, 0x00, 0x00,
  0x1c, 0x00, 0x00, 0x00, 0x68, 0xfe, 0xff, 0xff, 0x0f, 0x00, 0x00, 0x00,
  0x61, 0x72, 0x69, 0x74, 0x68, 0x2e, 0x63, 0x6f, 0x6e, 0x73, 0x74, 0x61,
  0x6e, 0x74, 0x35, 0x00, 0x02, 0x00, 0x00, 0x00, 0x04, 0x00, 0x00, 0x00,
  0x10, 0x00, 0x00, 0x00, 0x1e, 0xff, 0xff, 0xff, 0x00, 0x00, 0x00, 0x01,
  0x10, 0x00, 0x00, 0x00, 0x10, 0x00, 0x00, 0x00, 0x06, 0x00, 0x00, 0x00,
  0x1c, 0x00, 0x00, 0x00, 0xa4, 0xfe, 0xff, 0xff, 0x0f, 0x00, 0x00, 0x00,
  0x61, 0x72, 0x69, 0x74, 0x68, 0x2e, 0x63, 0x6f, 0x6e, 0x73, 0x74, 0x61,
  0x6e, 0x74, 0x34, 0x00, 0x01, 0x00, 0x00, 0x00, 0x04, 0x00, 0x00, 0x00,
  0x56, 0xff, 0xff, 0xff, 0x00, 0x00, 0x00, 0x01, 0x10, 0x00, 0x00, 0x00,
  0x10, 0x00, 0x00, 0x00, 0x05, 0x00, 0x00, 0x00, 0x1c, 0x00, 0x00, 0x00,
  0xdc, 0xfe, 0xff, 0xff, 0x0f, 0x00, 0x00, 0x00, 0x61, 0x72, 0x69, 0x74,
  0x68, 0x2e, 0x63, 0x6f, 0x6e, 0x73, 0x74, 0x61, 0x6e, 0x74, 0x33, 0x00,
  0x01, 0x00, 0x00, 0x00, 0x10, 0x00, 0x00, 0x00, 0x8e, 0xff, 0xff, 0xff,
  0x00, 0x00, 0x00, 0x01, 0x10, 0x00, 0x00, 0x00, 0x10, 0x00, 0x00, 0x00,
  0x04, 0x00, 0x00, 0x00, 0x1c, 0x00, 0x00, 0x00, 0x14, 0xff, 0xff, 0xff,
  0x0f, 0x00, 0x00, 0x00, 0x61, 0x72, 0x69, 0x74, 0x68, 0x2e, 0x63, 0x6f,
  0x6e, 0x73, 0x74, 0x61, 0x6e, 0x74, 0x32, 0x00, 0x01, 0x00, 0x00, 0x00,
  0x20, 0x00, 0x00, 0x00, 0xc6, 0xff, 0xff, 0xff, 0x00, 0x00, 0x00, 0x01,
  0x10, 0x00, 0x00, 0x00, 0x10, 0x00, 0x00, 0x00, 0x03, 0x00, 0x00, 0x00,
  0x1c, 0x00, 0x00, 0x00, 0x4c, 0xff, 0xff, 0xff, 0x0f, 0x00, 0x00, 0x00,
  0x61, 0x72, 0x69, 0x74, 0x68, 0x2e, 0x63, 0x6f, 0x6e, 0x73, 0x74, 0x61,
  0x6e, 0x74, 0x31, 0x00, 0x01, 0x00, 0x00, 0x00, 0x40, 0x00, 0x00, 0x00,
  0x00, 0x00, 0x16, 0x00, 0x18, 0x00, 0x14, 0x00, 0x00, 0x00, 0x10, 0x00,
  0x0c, 0x00, 0x08, 0x00, 0x00, 0x00, 0x00, 0x00, 0x00, 0x00, 0x07, 0x00,
  0x16, 0x00, 0x00, 0x00, 0x00, 0x00, 0x00, 0x01, 0x10, 0x00, 0x00, 0x00,
  0x10, 0x00, 0x00, 0x00, 0x02, 0x00, 0x00, 0x00, 0x1c, 0x00, 0x00, 0x00,
  0x9c, 0xff, 0xff, 0xff, 0x0e, 0x00, 0x00, 0x00, 0x61, 0x72, 0x69, 0x74,
  0x68, 0x2e, 0x63, 0x6f, 0x6e, 0x73, 0x74, 0x61, 0x6e, 0x74, 0x00, 0x00,
  0x02, 0x00, 0x00, 0x00, 0x40, 0x00, 0x00, 0x00, 0x02, 0x00, 0x00, 0x00,
  0x00, 0x00, 0x16, 0x00, 0x1c, 0x00, 0x18, 0x00, 0x00, 0x00, 0x14, 0x00,
  0x10, 0x00, 0x0c, 0x00, 0x00, 0x00, 0x00, 0x00, 0x08, 0x00, 0x07, 0x00,
  0x16, 0x00, 0x00, 0x00, 0x00, 0x00, 0x00, 0x01, 0x14, 0x00, 0x00, 0x00,
  0x20, 0x00, 0x00, 0x00, 0x20, 0x00, 0x00, 0x00, 0x01, 0x00, 0x00, 0x00,
  0x40, 0x00, 0x00, 0x00, 0x02, 0x00, 0x00, 0x00, 0xff, 0xff, 0xff, 0xff,
  0x02, 0x00, 0x00, 0x00, 0x04, 0x00, 0x04, 0x00, 0x04, 0x00, 0x00, 0x00,
  0x21, 0x00, 0x00, 0x00, 0x73, 0x65, 0x72, 0x76, 0x69, 0x6e, 0x67, 0x5f,
  0x64, 0x65, 0x66, 0x61, 0x75, 0x6c, 0x74, 0x5f, 0x6b, 0x65, 0x72, 0x61,
  0x73, 0x5f, 0x74, 0x65, 0x6e, 0x73, 0x6f, 0x72, 0x5f, 0x31, 0x39, 0x3a,
  0x30, 0x00, 0x00, 0x00, 0x02, 0x00, 0x00, 0x00, 0x01, 0x00, 0x00, 0x00,
  0x02, 0x00, 0x00, 0x00, 0x02, 0x00, 0x00, 0x00, 0x2c, 0x00, 0x00, 0x00,
  0x10, 0x00, 0x00, 0x00, 0x0c, 0x00, 0x0c, 0x00, 0x0b, 0x00, 0x00, 0x00,
  0x00, 0x00, 0x04, 0x00, 0x0c, 0x00, 0x00, 0x00, 0x19, 0x00, 0x00, 0x00,
  0x00, 0x00, 0x00, 0x19, 0x0c, 0x00, 0x10, 0x00, 0x0f, 0x00, 0x00, 0x00,
  0x08, 0x00, 0x04, 0x00, 0x0c, 0x00, 0x00, 0x00, 0x09, 0x00, 0x00, 0x00,
  0x0c, 0x00, 0x00, 0x00, 0x00, 0x00, 0x00, 0x09
};

